<pad>	0
<unk>	0
<s>	0
</s>	0
▁zh	0
▁en	0
▁t	-0
▁a	-1
▁th	-2
in	-3
on	-4
▁the	-5
re	-6
ti	-7
▁o	-8
er	-9
▁s	-10
▁c	-11
en	-12
▁p	-13
▁.	-14
▁of	-15
▁,	-16
es	-17
nd	-18
or	-19
tion	-20
▁in	-21
al	-22
ed	-23
it	-24
▁w	-25
▁f	-26
is	-27
at	-28
▁and	-29
an	-30
▁b	-31
▁m	-32
▁to	-33
ing	-34
▁d	-35
ar	-36
▁re	-37
ation	-38
ro	-39
▁h	-40
ent	-41
ou	-42
ic	-43
le	-44
▁n	-45
ec	-46
om	-47
as	-48
▁e	-49
ve	-50
ment	-51
▁g	-52
il	-53
▁u	-54
ce	-55
▁con	-56
▁for	-57
ra	-58
▁pro	-59
▁l	-60
st	-61
ri	-62
▁on	-63
th	-64
▁be	-65
ol	-66
20	-67
▁1	-68
▁st	-69
si	-70
▁i	-71
ly	-72
▁as	-73
▁com	-74
▁de	-75
ur	-76
ter	-77
▁that	-78
▁(	-79
▁is	-80
▁it	-81
ts	-82
se	-83
op	-84
ver	-85
ul	-86
▁su	-87
ith	-88
gh	-89
▁)	-90
▁"	-91
ir	-92
ate	-93
id	-94
▁with	-95
ations	-96
ad	-97
te	-98
ch	-99
▁al	-100
200	-101
▁wh	-102
▁un	-103
ity	-104
mp	-105
ld	-106
▁ac	-107
res	-108
▁no	-109
et	-110
▁ex	-111
pp	-112
▁or	-113
▁an	-114
ab	-115
▁we	-116
ort	-117
▁by	-118
tic	-119
ers	-120
▁y	-121
▁cou	-122
▁'	-123
▁comm	-124
ut	-125
▁me	-126
▁ch	-127
▁par	-128
qu	-129
ac	-130
ow	-131
ge	-132
▁v	-133
oc	-134
▁res	-135
mb	-136
ff	-137
ay	-138
▁sh	-139
▁at	-140
ain	-141
▁ad	-142
▁2	-143
▁/	-144
▁he	-145
ial	-146
ess	-147
▁are	-148
sion	-149
ational	-150
me	-151
nt	-152
vel	-153
ion	-154
▁rep	-155
ud	-156
uc	-157
ist	-158
end	-159
od	-160
tive	-161
▁sec	-162
▁le	-163
▁j	-164
▁was	-165
ted	-166
iz	-167
ill	-168
um	-169
▁inter	-170
▁imp	-171
▁ne	-172
▁ha	-173
un	-174
ties	-175
▁200	-176
ak	-177
ary	-178
us	-179
国家	-180
▁wor	-181
ther	-182
ance	-183
委员	-184
ore	-185
委员会	-186
99	-187
li	-188
▁go	-189
▁cont	-190
▁se	-191
▁inc	-192
▁you	-193
ure	-194
▁3	-195
and	-196
rom	-197
est	-198
velop	-199
▁ag	-200
▁its	-201
os	-202
▁develop	-203
▁sp	-204
ited	-205
ren	-206
会议	-207
▁:	-208
ated	-209
▁from	-210
fic	-211
工作	-212
▁;	-213
▁not	-214
ould	-215
rou	-216
▁this	-217
ution	-218
问题	-219
▁co	-220
▁k	-221
▁reg	-222
em	-223
联合	-224
ard	-225
ven	-226
▁r	-227
201	-228
ant	-229
▁all	-230
ip	-231
all	-232
▁have	-233
for	-234
▁dis	-235
gra	-236
▁intern	-237
ig	-238
▁ri	-239
ie	-240
▁ar	-241
▁comp	-242
eral	-243
red	-244
▁united	-245
▁li	-246
el	-247
▁exp	-248
ments	-249
▁gen	-250
▁app	-251
ap	-252
▁rec	-253
min	-254
国际	-255
发展	-256
▁per	-257
ies	-258
ates	-259
""	-260
lic	-261
▁pre	-262
▁commit	-263
▁righ	-264
ich	-265
00	-266
报告	-267
联合国	-268
▁has	-269
ities	-270
▁international	-271
form	-272
our	-273
▁prov	-274
▁4	-275
一个	-276
▁their	-277
▁5	-278
▁work	-279
ust	-280
▁und	-281
mber	-282
▁nations	-283
▁acc	-284
able	-285
▁count	-286
▁dec	-287
▁which	-288
am	-289
▁pl	-290
▁pe	-291
im	-292
我们	-293
组织	-294
▁general	-295
iv	-296
ish	-297
lo	-298
▁will	-299
ous	-300
sid	-301
tee	-302
vern	-303
▁man	-304
提供	-305
▁ab	-306
age	-307
▁6	-308
▁development	-309
ans	-310
▁pol	-311
▁ind	-312
▁under	-313
ome	-314
政府	-315
igh	-316
so	-317
ces	-318
uman	-319
ace	-320
▁sa	-321
▁committee	-322
ence	-323
▁po	-324
lud	-325
▁govern	-326
▁eff	-327
▁tra	-328
ress	-329
ect	-330
▁human	-331
tiv	-332
ty	-333
ord	-334
ia	-335
▁also	-336
ission	-337
ry	-338
erv	-339
tions	-340
ct	-341
gan	-342
ll	-343
fe	-344
▁rights	-345
ong	-346
▁sub	-347
▁had	-348
▁report	-349
▁ass	-350
▁been	-351
▁supp	-352
ub	-353
▁other	-354
。"	-355
duc	-356
方面	-357
ision	-358
关于	-359
ild	-360
og	-361
lement	-362
ue	-363
▁states	-364
▁were	-365
gram	-366
▁fin	-367
进行	-368
▁organ	-369
社会	-370
▁op	-371
▁includ	-372
▁la	-373
▁int	-374
以及	-375
这些	-376
▁program	-377
▁tr	-378
▁out	-379
▁-	-380
eration	-381
ult	-382
ric	-383
▁199	-384
▁di	-385
▁am	-386
▁201	-387
▁state	-388
ries	-389
ear	-390
包括	-391
其他	-392
▁organiz	-393
ret	-394
ari	-395
▁can	-396
resent	-397
ech	-398
▁spec	-399
▁requ	-400
▁inform	-401
方案	-402
▁there	-403
通过	-404
情况	-405
▁cons	-406
ach	-407
▁up	-408
▁should	-409
▁sy	-410
▁provid	-411
ign	-412
▁coun	-413
▁ec	-414
机构	-415
▁add	-416
▁resp	-417
ical	-418
olution	-419
行动	-420
ast	-421
ake	-422
▁mo	-423
▁ob	-424
执行	-425
ble	-426
▁would	-427
▁conc	-428
ep	-429
anc	-430
代表	-431
▁wom	-432
ase	-433
ms	-434
tit	-435
▁national	-436
ree	-437
▁partic	-438
ual	-439
特别	-440
▁ra	-441
▁they	-442
▁implement	-443
▁af	-444
有关	-445
▁countries	-446
▁proc	-447
▁his	-448
▁offic	-449
onom	-450
▁inv	-451
经济	-452
▁7	-453
▁cent	-454
ag	-455
▁bo	-456
▁grou	-457
reat	-458
▁women	-459
▁support	-460
▁government	-461
▁but	-462
ke	-463
ose	-464
▁soc	-465
安全	-466
他们	-467
人权	-468
▁new	-469
▁ro	-470
ublic	-471
cil	-472
out	-473
ative	-474
▁secret	-475
ice	-476
ine	-477
人员	-478
▁us	-479
low	-480
▁ter	-481
ors	-482
iew	-483
ures	-484
所有	-485
▁more	-486
活动	-487
▁meet	-488
stem	-489
▁pers	-490
妇女	-491
▁econom	-492
秘书	-493
ons	-494
▁在	-495
▁law	-496
rib	-497
决议	-498
▁such	-499
▁so	-500
ession	-501
."	-502
▁council	-503
▁resolution	-504
▁serv	-505
▁rel	-506
▁qu	-507
urity	-508
▁year	-509
orts	-510
▁system	-511
lish	-512
▁do	-513
mo	-514
▁security	-515
ten	-516
▁one	-517
ility	-518
199	-519
没有	-520
▁min	-521
建议	-522
ory	-523
▁bas	-524
合作	-525
项目	-526
▁group	-527
公约	-528
▁peop	-529
▁information	-530
ition	-531
vention	-532
und	-533
▁region	-534
ular	-535
▁str	-536
▁over	-537
▁prot	-538
▁mar	-539
▁ins	-540
ating	-541
▁need	-542
rough	-543
ere	-544
10	-545
ph	-546
▁child	-547
ft	-548
ade	-549
管理	-550
▁8	-551
▁mon	-552
ern	-553
▁meeting	-554
are	-555
▁some	-556
ru	-557
enc	-558
▁fac	-559
▁bet	-560
▁may	-561
▁asse	-562
tical	-563
ail	-564
可能	-565
▁iss	-566
区域	-567
les	-568
▁including	-569
▁trans	-570
大会	-571
omm	-572
▁ti	-573
▁prop	-574
▁disc	-575
需要	-576
▁appro	-577
▁contin	-578
12	-579
ks	-580
理事	-581
技术	-582
▁cl	-583
可以	-584
--	-585
feren	-586
very	-587
计划	-588
▁high	-589
缔约	-590
▁19	-591
▁commun	-592
▁consid	-593
根据	-594
规定	-595
ang	-596
▁dep	-597
▁special	-598
we	-599
▁au	-600
ond	-601
ting	-602
儿童	-603
▁vi	-604
理事会	-605
▁commission	-606
▁leg	-607
▁artic	-608
▁rev	-609
echn	-610
▁pri	-611
这一	-612
▁activ	-613
▁9	-614
▁who	-615
▁tw	-616
提出	-617
▁session	-618
▁people	-619
▁programme	-620
mit	-621
▁techn	-622
▁10	-623
iti	-624
▁into	-625
法律	-626
▁economic	-627
▁est	-628
▁?	-629
采取	-630
▁through	-631
▁te	-632
▁time	-633
▁again	-634
系统	-635
决定	-636
▁any	-637
ific	-638
ective	-639
▁these	-640
措施	-641
重要	-642
▁part	-643
▁fund	-644
▁implementation	-645
enti	-646
▁how	-647
uring	-648
ving	-649
▁assemb	-650
▁if	-651
支持	-652
▁made	-653
▁dra	-654
权利	-655
▁assembly	-656
ablish	-657
rac	-658
▁establish	-659
ues	-660
▁level	-661
服务	-662
▁cri	-663
▁inte	-664
ference	-665
au	-666
de	-667
▁coop	-668
▁financ	-669
必须	-670
▁than	-671
▁world	-672
▁gu	-673
▁social	-674
▁represent	-675
▁des	-676
ack	-677
▁polic	-678
影响	-679
▁sc	-680
▁peace	-681
▁concern	-682
▁recomm	-683
▁recommend	-684
air	-685
▁them	-686
世界	-687
ount	-688
▁assist	-689
▁convention	-690
ile	-691
▁incre	-692
▁cap	-693
ot	-694
▁meas	-695
研究	-696
政策	-697
olog	-698
tain	-699
▁my	-700
▁fol	-701
▁这	-702
graph	-703
ection	-704
▁those	-705
▁well	-706
和平	-707
资源	-708
ved	-709
▁para	-710
▁article	-711
▁fir	-712
▁her	-713
保护	-714
▁activities	-715
▁secretary	-716
▁ref	-717
▁import	-718
ween	-719
▁between	-720
▁我	-721
▁process	-722
▁adv	-723
▁follow	-724
one	-725
ange	-726
▁resour	-727
ire	-728
▁sta	-729
ally	-730
▁when	-731
▁mat	-732
的一	-733
11	-734
▁ed	-735
认为	-736
art	-737
继续	-738
要求	-739
ok	-740
▁use	-741
▁pr	-742
▁your	-743
▁fe	-744
titution	-745
促进	-746
▁against	-747
▁auth	-748
ural	-749
19	-750
lec	-751
▁country	-752
▁plan	-753
▁ev	-754
▁adop	-755
成员	-756
主义	-757
▁about	-758
基金	-759
go	-760
▁public	-761
▁our	-762
ters	-763
cc	-764
▁col	-765
加强	-766
fore	-767
▁two	-768
▁equ	-769
使用	-770
▁conf	-771
环境	-772
ful	-773
秘书长	-774
hip	-775
ices	-776
努力	-777
▁cooperation	-778
als	-779
教育	-780
get	-781
ges	-782
▁lo	-783
目标	-784
▁particular	-785
行为	-786
ays	-787
ite	-788
任何	-789
▁tak	-790
能力	-791
▁children	-792
mbers	-793
led	-794
▁cour	-795
▁fur	-796
lear	-797
der	-798
▁author	-799
▁form	-800
ise	-801
ass	-802
▁first	-803
tives	-804
man	-805
▁nu	-806
now	-807
▁main	-808
▁viol	-809
▁could	-810
agement	-811
leg	-812
ration	-813
alth	-814
▁exper	-815
ateg	-816
▁conference	-817
▁accord	-818
▁parties	-819
if	-820
▁chin	-821
▁she	-822
▁respon	-823
mes	-824
信息	-825
▁non	-826
的人	-827
▁bu	-828
ens	-829
▁only	-830
主席	-831
▁emp	-832
ized	-833
确保	-834
▁oper	-835
提交	-836
ects	-837
)。	-838
ide	-839
▁educ	-840
▁regard	-841
ian	-842
▁promo	-843
▁bec	-844
▁measures	-845
▁12	-846
ilit	-847
▁第	-848
部门	-849
ath	-850
ents	-851
ism	-852
美元	-853
▁mr	-854
作为	-855
▁aff	-856
▁further	-857
▁decision	-858
缔约国	-859
主要	-860
ious	-861
注意	-862
int	-863
部分	-864
ality	-865
▁15	-866
▁review	-867
▁regional	-868
▁see	-869
ied	-870
ruc	-871
▁draft	-872
▁jo	-873
ning	-874
▁set	-875
▁provision	-876
▁produc	-877
ive	-878
▁resources	-879
▁terr	-880
uation	-881
ork	-882
▁shall	-883
ght	-884
▁action	-885
iod	-886
▁diff	-887
建立	-888
全球	-889
▁financial	-890
ound	-891
▁ful	-892
15	-893
old	-894
mination	-895
▁members	-896
▁particip	-897
一些	-898
▁management	-899
▁during	-900
ards	-901
▁said	-902
▁ann	-903
文件	-904
▁services	-905
如果	-906
已经	-907
▁number	-908
▁health	-909
援助	-910
号决议	-911
▁office	-912
sive	-913
因为	-914
arm	-915
届会议	-916
▁organizations	-917
▁sit	-918
▁proj	-919
▁$	-920
▁afric	-921
▁paragraph	-922
▁present	-923
协调	-924
pe	-925
▁period	-926
inc	-927
因此	-928
▁es	-929
▁dem	-930
vers	-931
row	-932
▁what	-933
▁efforts	-934
▁working	-935
▁doc	-936
ency	-937
▁rele	-938
地区	-939
onment	-940
▁party	-941
ings	-942
▁right	-943
期间	-944
sible	-945
▁13	-946
▁ca	-947
bal	-948
sts	-949
loy	-950
ight	-951
▁glo	-952
▁propos	-953
▁pur	-954
草案	-955
vir	-956
▁person	-957
▁like	-958
先生	-959
▁contrib	-960
xt	-961
公司	-962
审议	-963
▁poli	-964
med	-965
▁si	-966
ining	-967
举行	-968
实现	-969
▁take	-970
▁他	-971
▁impro	-972
▁most	-973
▁cur	-974
▁assistance	-975
之间	-976
ef	-977
ization	-978
参与	-979
1.	-980
▁dire	-981
事务	-982
中国	-983
表示	-984
的工作	-985
▁organization	-986
解决	-987
战略	-988
▁order	-989
gth	-990
▁know	-991
▁car	-992
人民	-993
ected	-994
▁must	-995
关系	-996
sure	-997
av	-998
审查	-999
有效	-1000
▁sch	-1001
▁我们	-1002
▁address	-1003
vironment	-1004
▁strateg	-1005
的报告	-1006
▁sign	-1007
▁ma	-1008
▁years	-1009
▁issues	-1010
act	-1011
增加	-1012
tice	-1013
▁mission	-1014
ute	-1015
▁fore	-1016
ability	-1017
▁member	-1018
▁civ	-1019
▁many	-1020
ys	-1021
▁14	-1022
▁global	-1023
政治	-1024
king	-1025
实施	-1026
▁provide	-1027
▁admin	-1028
▁stud	-1029
▁after	-1030
各国	-1031
▁staff	-1032
itor	-1033
▁off	-1034
▁education	-1035
cep	-1036
这种	-1037
000	-1038
和国	-1039
▁loc	-1040
▁ph	-1041
ber	-1042
持续	-1043
lf	-1044
ety	-1045
lig	-1046
▁civil	-1047
讨论	-1048
相关	-1049
这个	-1050
武器	-1051
领域	-1052
▁item	-1053
wn	-1054
得到	-1055
▁bud	-1056
▁eu	-1057
pr	-1058
中的	-1059
考虑	-1060
ince	-1061
非洲	-1062
▁political	-1063
▁presid	-1064
作出	-1065
▁inst	-1066
▁where	-1067
▁stren	-1068
▁republic	-1069
▁strength	-1070
▁addition	-1071
erg	-1072
作用	-1073
▁prac	-1074
lu	-1075
30	-1076
开展	-1077
▁pos	-1078
的是	-1079
▁act	-1080
ood	-1081
▁protection	-1082
▁docu	-1083
ases	-1084
ordin	-1085
▁within	-1086
预算	-1087
▁agend	-1088
▁based	-1089
共和国	-1090
ral	-1091
▁policy	-1092
人的	-1093
美国	-1094
▁stand	-1095
▁mill	-1096
▁ext	-1097
程序	-1098
▁institution	-1099
▁make	-1100
▁agenda	-1101
▁treat	-1102
work	-1103
指出	-1104
▁def	-1105
▁developing	-1106
自己	-1107
▁med	-1108
▁16	-1109
▁av	-1110
▁call	-1111
▁being	-1112
▁18	-1113
获得	-1114
议程	-1115
lect	-1116
tor	-1117
ily	-1118
▁effective	-1119
vant	-1120
小组	-1121
ulation	-1122
▁account	-1123
中心	-1124
方面的	-1125
方法	-1126
▁sou	-1127
par	-1128
▁good	-1129
▁prev	-1130
ater	-1131
▁provided	-1132
ever	-1133
▁administ	-1134
▁view	-1135
▁20	-1136
▁agree	-1137
ued	-1138
ants	-1139
▁fra	-1140
tim	-1141
ament	-1142
▁11	-1143
▁rem	-1144
ey	-1145
资料	-1146
▁while	-1147
▁coordin	-1148
ind	-1149
▁mod	-1150
▁nor	-1151
▁cor	-1152
支助	-1153
但是	-1154
▁areas	-1155
▁initi	-1156
ium	-1157
▁legal	-1158
▁persons	-1159
its	-1160
时间	-1161
基础	-1162
land	-1163
数据	-1164
代表团	-1165
▁training	-1166
tern	-1167
提高	-1168
▁budget	-1169
▁build	-1170
▁ach	-1171
斯坦	-1172
调查	-1173
ause	-1174
▁technolog	-1175
▁great	-1176
▁capac	-1177
atives	-1178
▁achie	-1179
rent	-1180
▁ser	-1181
▁euro	-1182
培训	-1183
处理	-1184
tis	-1185
▁contro	-1186
▁char	-1187
▁important	-1188
▁strengthen	-1189
▁related	-1190
▁china	-1191
▁princ	-1192
▁fam	-1193
其中	-1194
omes	-1195
正在	-1196
▁applic	-1197
行政	-1198
一步	-1199
▁now	-1200
sib	-1201
▁relevant	-1202
▁him	-1203
▁long	-1204
▁community	-1205
▁since	-1206
ered	-1207
▁both	-1208
▁increas	-1209
▁programmes	-1210
▁inf	-1211
▁id	-1212
▁before	-1213
▁att	-1214
目前	-1215
贸易	-1216
▁princip	-1217
▁aw	-1218
stain	-1219
许多	-1220
▁ques	-1221
意见	-1222
由于	-1223
ilities	-1224
能够	-1225
enn	-1226
▁however	-1227
▁sustain	-1228
day	-1229
til	-1230
gress	-1231
发言	-1232
14	-1233
▁dat	-1234
3.	-1235
ield	-1236
特别是	-1237
特派	-1238
▁deleg	-1239
▁direct	-1240
lar	-1241
reed	-1242
▁pop	-1243
第二	-1244
▁rece	-1245
▁17	-1246
▁second	-1247
什么	-1248
的问题	-1249
arch	-1250
机制	-1251
▁current	-1252
2.	-1253
18	-1254
▁held	-1255
▁ii	-1256
方式	-1257
▁president	-1258
注意到	-1259
ared	-1260
它们	-1261
特派团	-1262
▁following	-1263
▁trade	-1264
▁lead	-1265
参加	-1266
▁obj	-1267
di	-1268
任务	-1269
▁discus	-1270
秘书处	-1271
取得	-1272
开始	-1273
ariat	-1274
▁im	-1275
▁ear	-1276
▁ur	-1277
同时	-1278
进一步	-1279
法院	-1280
标准	-1281
▁reques	-1282
▁secretariat	-1283
▁dist	-1284
减少	-1285
ower	-1286
sition	-1287
ib	-1288
▁bod	-1289
▁three	-1290
13	-1291
▁among	-1292
条约	-1293
▁exa	-1294
▁hel	-1295
▁require	-1296
利用	-1297
▁30	-1298
人口	-1299
说明	-1300
▁uni	-1301
必要	-1302
家庭	-1303
犯罪	-1304
16	-1305
专家	-1306
新的	-1307
ked	-1308
一项	-1309
ecess	-1310
▁situation	-1311
▁europe	-1312
▁nuc	-1313
确定	-1314
▁service	-1315
原则	-1316
▁depart	-1317
▁adopted	-1318
gin	-1319
▁proble	-1320
开发	-1321
▁ban	-1322
▁sur	-1323
发展中	-1324
共同	-1325
▁nuclear	-1326
▁sm	-1327
▁access	-1328
▁court	-1329
安全理事会	-1330
▁ben	-1331
▁val	-1332
司法	-1333
ender	-1334
ffic	-1335
▁2008	-1336
▁partn	-1337
4.	-1338
评估	-1339
暴力	-1340
▁proced	-1341
▁assess	-1342
stan	-1343
ize	-1344
的情况	-1345
责任	-1346
▁integ	-1347
平等	-1348
▁remain	-1349
▁indic	-1350
pri	-1351
制度	-1352
▁consult	-1353
▁capacity	-1354
不是	-1355
▁each	-1356
生活	-1357
ired	-1358
及其	-1359
erc	-1360
▁2006	-1361
echan	-1362
▁head	-1363
强调	-1364
▁frame	-1365
现在	-1366
▁mechan	-1367
▁own	-1368
eric	-1369
的国家	-1370
工作人员	-1371
▁2005	-1372
▁technical	-1373
▁continue	-1374
用于	-1375
▁don	-1376
制定	-1377
文化	-1378
ough	-1379
▁comple	-1380
▁very	-1381
▁control	-1382
25	-1383
各种	-1384
▁dece	-1385
一种	-1386
▁bus	-1387
▁taken	-1388
▁vari	-1389
▁used	-1390
框架	-1391
▁help	-1392
不同	-1393
部队	-1394
▁every	-1395
▁reports	-1396
▁jud	-1397
投资	-1398
▁necess	-1399
▁soci	-1400
▁same	-1401
ines	-1402
▁br	-1403
费用	-1404
发展中国家	-1405
aking	-1406
iness	-1407
▁specific	-1408
▁cr	-1409
▁grow	-1410
own	-1411
欧洲	-1412
urn	-1413
▁opp	-1414
分析	-1415
办法	-1416
▁did	-1417
ell	-1418
▁occ	-1419
▁recommendations	-1420
▁men	-1421
round	-1422
▁life	-1423
▁field	-1424
ves	-1425
▁cult	-1426
▁respect	-1427
▁four	-1428
▁december	-1429
▁progress	-1430
▁ju	-1431
▁submit	-1432
一次	-1433
机会	-1434
▁em	-1435
歧视	-1436
和其他	-1437
▁employ	-1438
▁obs	-1439
伙伴	-1440
▁million	-1441
建设	-1442
问题的	-1443
▁six	-1444
▁prior	-1445
▁maj	-1446
tention	-1447
ool	-1448
发生	-1449
冲突	-1450
进程	-1451
▁role	-1452
▁established	-1453
而且	-1454
▁thir	-1455
结果	-1456
▁consider	-1457
▁identi	-1458
▁ris	-1459
具有	-1460
▁board	-1461
une	-1462
可持续	-1463
▁weap	-1464
▁jus	-1465
自由	-1466
▁sti	-1467
▁data	-1468
▁contain	-1469
▁local	-1470
▁sum	-1471
生产	-1472
▁way	-1473
▁2009	-1474
希望	-1475
▁gender	-1476
▁2010	-1477
▁25	-1478
以便	-1479
6.	-1480
7.	-1481
▁intere	-1482
▁2007	-1483
▁without	-1484
工作组	-1485
▁americ	-1486
范围	-1487
▁representative	-1488
ese	-1489
具体	-1490
咨询	-1491
▁2004	-1492
ogn	-1493
▁anal	-1494
▁let	-1495
▁appropri	-1496
成为	-1497
ex	-1498
此外	-1499
oura	-1500
/6	-1501
对于	-1502
▁major	-1503
▁recogn	-1504
),	-1505
▁communic	-1506
ket	-1507
ined	-1508
▁partners	-1509
▁fact	-1510
存在	-1511
条件	-1512
接受	-1513
▁rese	-1514
▁case	-1515
▁violence	-1516
▁accordance	-1517
全面	-1518
▁chair	-1519
▁avail	-1520
基本	-1521
▁reduc	-1522
▁disp	-1523
企业	-1524
是否	-1525
▁crimin	-1526
▁exec	-1527
▁gra	-1528
利亚	-1529
▁express	-1530
▁invol	-1531
▁stat	-1532
iation	-1533
▁nat	-1534
▁land	-1535
unc	-1536
▁meth	-1537
▁bi	-1538
up	-1539
▁document	-1540
ital	-1541
▁because	-1542
ner	-1543
应当	-1544
▁conflic	-1545
市场	-1546
▁south	-1547
会员	-1548
这样	-1549
▁foc	-1550
应该	-1551
造成	-1552
ale	-1553
▁cre	-1554
▁*	-1555
高级	-1556
▁你	-1557
▁discri	-1558
17	-1559
充分	-1560
ages	-1561
难民	-1562
▁cases	-1563
▁place	-1564
为了	-1565
ink	-1566
▁improve	-1567
ness	-1568
arian	-1569
▁conduc	-1570
▁full	-1571
地方	-1572
ivid	-1573
tal	-1574
▁mand	-1575
维持	-1576
▁even	-1577
▁criminal	-1578
isl	-1579
适当	-1580
▁africa	-1581
公共	-1582
▁air	-1583
ss	-1584
▁mu	-1585
▁day	-1586
▁necessary	-1587
▁lar	-1588
受到	-1589
▁area	-1590
▁invest	-1591
进展	-1592
▁building	-1593
联盟	-1594
▁school	-1595
8.	-1596
▁z	-1597
▁legisl	-1598
办事	-1599
▁design	-1600
▁cer	-1601
ently	-1602
▁just	-1603
ture	-1604
▁method	-1605
严重	-1606
read	-1607
▁research	-1608
erent	-1609
roduc	-1610
不能	-1611
▁water	-1612
▁guid	-1613
▁prof	-1614
负责	-1615
▁exist	-1616
设立	-1617
ame	-1618
▁institutions	-1619
allen	-1620
▁basis	-1621
▁monitor	-1622
▁june	-1623
▁gi	-1624
▁milit	-1625
▁framework	-1626
大的	-1627
▁open	-1628
▁project	-1629
▁groups	-1630
▁rest	-1631
▁terror	-1632
▁care	-1633
▁found	-1634
sibility	-1635
▁hand	-1636
会员国	-1637
▁2011	-1638
▁official	-1639
▁approach	-1640
尼亚	-1641
按照	-1642
stand	-1643
▁deter	-1644
民主	-1645
▁transp	-1646
消除	-1647
就是	-1648
▁sustainable	-1649
最后	-1650
ised	-1651
▁mul	-1652
fy	-1653
办事处	-1654
▁increase	-1655
▁该	-1656
▁.1	-1657
ience	-1658
▁technology	-1659
aim	-1660
资金	-1661
▁pay	-1662
▁possible	-1663
▁.2	-1664
产生	-1665
sp	-1666
▁result	-1667
▁last	-1668
▁society	-1669
缔约方	-1670
▁appropriate	-1671
▁2003	-1672
▁sector	-1673
▁back	-1674
▁meetings	-1675
▁operations	-1676
▁policies	-1677
5.	-1678
ged	-1679
fication	-1680
▁tre	-1681
▁military	-1682
▁pa	-1683
个人	-1684
▁department	-1685
正式	-1686
▁const	-1687
▁contribution	-1688
▁vis	-1689
▁business	-1690
▁resul	-1691
ron	-1692
▁small	-1693
▁needs	-1694
▁upon	-1695
协助	-1696
lc	-1697
ister	-1698
▁compan	-1699
encies	-1700
ban	-1701
▁challen	-1702
年的	-1703
coura	-1704
▁2002	-1705
帮助	-1706
▁priv	-1707
▁2000	-1708
/5	-1709
thing	-1710
▁receiv	-1711
▁justice	-1712
他的	-1713
▁note	-1714
▁focus	-1715
▁!	-1716
tig	-1717
ortun	-1718
▁food	-1719
▁pal	-1720
▁police	-1721
▁then	-1722
▁developed	-1723
▁change	-1724
ah	-1725
▁bro	-1726
tle	-1727
▁force	-1728
ended	-1729
▁spe	-1730
义务	-1731
ensive	-1732
itarian	-1733
fied	-1734
▁does	-1735
办公	-1736
各项	-1737
人道	-1738
设施	-1739
▁net	-1740
次会议	-1741
欢迎	-1742
▁total	-1743
▁func	-1744
控制	-1745
▁foreign	-1746
▁proposed	-1747
▁according	-1748
▁24	-1749
tics	-1750
▁2012	-1751
▁comb	-1752
▁family	-1753
上的	-1754
恐怖	-1755
并且	-1756
nel	-1757
▁perform	-1758
承诺	-1759
▁available	-1760
ove	-1761
▁rul	-1762
▁fif	-1763
▁委员会	-1764
业务	-1765
9.	-1766
▁real	-1767
▁,000	-1768
性的	-1769
▁provisions	-1770
改革	-1771
oun	-1772
性别	-1773
如何	-1774
ule	-1775
2005	-1776
▁july	-1777
鼓励	-1778
▁welc	-1779
ross	-1780
▁humanitarian	-1781
▁advis	-1782
ather	-1783
▁issue	-1784
▁oblig	-1785
▁consideration	-1786
----	-1787
ividual	-1788
知道	-1789
▁war	-1790
▁individual	-1791
▁post	-1792
sions	-1793
▁claim	-1794
▁get	-1795
▁deli	-1796
形式	-1797
决议草案	-1798
▁22	-1799
▁sen	-1800
▁population	-1801
目的	-1802
cept	-1803
erial	-1804
iter	-1805
▁allow	-1806
做法	-1807
变化	-1808
实际	-1809
▁third	-1810
▁tow	-1811
▁proper	-1812
▁23	-1813
▁include	-1814
安排	-1815
以色	-1816
▁2001	-1817
以色列	-1818
▁still	-1819
▁因此	-1820
议定	-1821
▁given	-1822
▁fut	-1823
积极	-1824
监测	-1825
▁democ	-1826
▁month	-1827
▁agreement	-1828
eping	-1829
国内	-1830
2008	-1831
airs	-1832
第三	-1833
尤其	-1834
▁discrimination	-1835
▁question	-1836
▁weapons	-1837
mple	-1838
▁list	-1839
▁concerned	-1840
第一	-1841
协定	-1842
一般	-1843
▁indust	-1844
健康	-1845
▁inves	-1846
ruction	-1847
▁univers	-1848
▁--	-1849
/2	-1850
▁continued	-1851
du	-1852
▁isra	-1853
▁ret	-1854
ov	-1855
▁bl	-1856
▁clear	-1857
▁african	-1858
▁future	-1859
▁governments	-1860
涉及	-1861
▁elect	-1862
▁different	-1863
▁european	-1864
银行	-1865
ai	-1866
事项	-1867
▁term	-1868
ocol	-1869
rative	-1870
ately	-1871
▁promote	-1872
atory	-1873
两个	-1874
独立	-1875
50	-1876
认识	-1877
epend	-1878
tial	-1879
▁joint	-1880
▁opportun	-1881
完成	-1882
▁market	-1883
过程	-1884
▁various	-1885
之间的	-1886
滋病	-1887
规划	-1888
▁此外	-1889
更多	-1890
▁deb	-1891
▁lab	-1892
尽管	-1893
rab	-1894
ennium	-1895
挑战	-1896
▁vic	-1897
sh	-1898
ract	-1899
▁signific	-1900
非政府	-1901
2009	-1902
ouse	-1903
ditions	-1904
非常	-1905
ences	-1906
▁subj	-1907
批准	-1908
▁2.	-1909
2010	-1910
▁union	-1911
▁required	-1912
艾滋病	-1913
议定书	-1914
▁benef	-1915
地位	-1916
..	-1917
▁conflict	-1918
▁considered	-1919
增长	-1920
▁assoc	-1921
ient	-1922
科学	-1923
▁find	-1924
▁investig	-1925
▁aim	-1926
▁free	-1927
▁oct	-1928
pec	-1929
▁protocol	-1930
▁vol	-1931
表明	-1932
▁beh	-1933
▁particularly	-1934
▁26	-1935
self	-1936
日至	-1937
卫生	-1938
谈判	-1939
人们	-1940
办公室	-1941
▁levels	-1942
2006	-1943
▁elec	-1944
ober	-1945
▁achieve	-1946
选举	-1947
▁much	-1948
▁conte	-1949
▁sep	-1950
▁regul	-1951
ering	-1952
▁purp	-1953
▁status	-1954
▁importance	-1955
预防	-1956
▁execu	-1957
▁therefore	-1958
有关的	-1959
例如	-1960
▁tri	-1961
▁det	-1962
▁declar	-1963
▁cost	-1964
监督	-1965
▁noted	-1966
▁reform	-1967
规则	-1968
▁rules	-1969
2004	-1970
国家的	-1971
▁whe	-1972
▁additional	-1973
2007	-1974
▁administrative	-1975
verty	-1976
▁prepar	-1977
▁participation	-1978
收入	-1979
▁affairs	-1980
▁poverty	-1981
巴勒	-1982
▁material	-1983
利益	-1984
2000	-1985
▁annex	-1986
▁coordination	-1987
ators	-1988
▁palest	-1989
▁october	-1990
那些	-1991
other	-1992
当局	-1993
▁sever	-1994
介绍	-1995
▁look	-1996
▁treaty	-1997
是在	-1998
▁21	-1999
时候	-2000
▁27	-2001
▁sw	-2002
▁above	-2003
临时	-2004
巴勒斯坦	-2005
gn	-2006
关切	-2007
ran	-2008
▁delegation	-2009
reh	-2010
▁requirements	-2011
▁independ	-2012
武装	-2013
rug	-2014
▁beli	-2015
ceed	-2016
▁conditions	-2017
以下	-2018
tember	-2019
ually	-2020
非政府组织	-2021
▁increased	-2022
改善	-2023
ator	-2024
ling	-2025
▁integr	-2026
▁这些	-2027
我的	-2028
▁sex	-2029
▁results	-2030
▁september	-2031
▁central	-2032
ateral	-2033
▁wr	-2034
你的	-2035
▁down	-2036
▁facilit	-2037
军事	-2038
金融	-2039
▁eval	-2040
▁decid	-2041
了一	-2042
结构	-2043
ope	-2044
▁198	-2045
提出的	-2046
▁nove	-2047
▁november	-2048
sia	-2049
▁如果	-2050
▁relations	-2051
立法	-2052
▁clo	-2053
▁less	-2054
alf	-2055
▁play	-2056
▁impact	-2057
24	-2058
成果	-2059
ost	-2060
▁1.	-2061
▁28	-2062
之后	-2063
优先	-2064
▁interest	-2065
▁introduc	-2066
领土	-2067
osed	-2068
▁means	-2069
人道主义	-2070
▁monitoring	-2071
法庭	-2072
▁cli	-2073
▁traffic	-2074
▁another	-2075
irc	-2076
▁several	-2077
▁projects	-2078
内的	-2079
仍然	-2080
采用	-2081
▁executive	-2082
▁er	-2083
▁compreh	-2084
状况	-2085
领导	-2086
▁undert	-2087
▁authorities	-2088
协商	-2089
阿拉	-2090
▁purs	-2091
案件	-2092
▁2013	-2093
▁fed	-2094
▁analys	-2095
▁agencies	-2096
稳定	-2097
▁1999	-2098
▁step	-2099
刑事	-2100
▁significant	-2101
ced	-2102
ergy	-2103
uge	-2104
▁common	-2105
▁chang	-2106
ls	-2107
▁.4	-2108
▁vo	-2109
▁31	-2110
▁representatives	-2111
以来	-2112
▁x	-2113
2011	-2114
mary	-2115
▁application	-2116
▁key	-2117
▁study	-2118
无法	-2119
▁show	-2120
▁section	-2121
▁struc	-2122
委员会的	-2123
▁jan	-2124
▁private	-2125
▁march	-2126
ev	-2127
▁risk	-2128
▁disarm	-2129
出现	-2130
▁bri	-2131
观察	-2132
▁circ	-2133
知识	-2134
▁making	-2135
▁bodies	-2136
直接	-2137
财政	-2138
▁ple	-2139
ially	-2140
ne	-2141
▁她	-2142
两年	-2143
▁substan	-2144
限制	-2145
风险	-2146
▁submitted	-2147
dition	-2148
关注	-2149
或者	-2150
▁request	-2151
▁comprehensive	-2152
▁aid	-2153
fer	-2154
lain	-2155
▁space	-2156
▁domes	-2157
2003	-2158
▁ori	-2159
附件	-2160
▁prevent	-2161
禁止	-2162
▁power	-2163
▁reas	-2164
的影响	-2165
ists	-2166
▁principles	-2167
▁large	-2168
31	-2169
综合	-2170
的一个	-2171
yp	-2172
▁disarmament	-2173
▁systems	-2174
▁towards	-2175
▁attention	-2176
▁declaration	-2177
▁put	-2178
▁strategy	-2179
▁pap	-2180
警察	-2181
种族	-2182
保障	-2183
审计	-2184
是一个	-2185
▁domestic	-2186
);	-2187
▁whether	-2188
▁fri	-2189
之前	-2190
sequ	-2191
大会第	-2192
▁personnel	-2193
▁0	-2194
atic	-2195
最近	-2196
履行	-2197
一致	-2198
▁div	-2199
idence	-2200
▁amount	-2201
国际社会	-2202
23	-2203
原因	-2204
▁better	-2205
▁succ	-2206
equ	-2207
星期	-2208
▁estim	-2209
▁understand	-2210
▁aud	-2211
空间	-2212
ash	-2213
0.	-2214
土著	-2215
▁crime	-2216
▁read	-2217
21	-2218
不会	-2219
过去	-2220
iss	-2221
▁.3	-2222
ises	-2223
现有	-2224
内容	-2225
▁pan	-2226
指导	-2227
国的	-2228
▁record	-2229
co	-2230
运动	-2231
▁prep	-2232
▁received	-2233
社区	-2234
ave	-2235
vironmental	-2236
▁regular	-2237
▁cultural	-2238
az	-2239
▁prevention	-2240
duce	-2241
▁pros	-2242
▁agreed	-2243
▁success	-2244
ential	-2245
▁ge	-2246
阿拉伯	-2247
aren	-2248
▁tar	-2249
▁1998	-2250
▁espec	-2251
mar	-2252
▁statement	-2253
然而	-2254
▁establishment	-2255
▁perman	-2256
虽然	-2257
针对	-2258
▁especially	-2259
goti	-2260
▁bank	-2261
▁drug	-2262
▁不	-2263
▁costs	-2264
▁growth	-2265
财务	-2266
▁3.	-2267
▁arab	-2268
▁advisory	-2269
公民	-2270
▁ke	-2271
2002	-2272
▁ver	-2273
评价	-2274
经费	-2275
者的	-2276
▁联合国	-2277
需求	-2278
▁negoti	-2279
enous	-2280
报告员	-2281
ward	-2282
orte	-2283
集团	-2284
oration	-2285
▁minist	-2286
日第	-2287
▁emerg	-2288
经验	-2289
▁rule	-2290
be	-2291
产品	-2292
uary	-2293
▁strong	-2294
ger	-2295
防止	-2296
▁rapp	-2297
比亚	-2298
2001	-2299
▁.5	-2300
广泛	-2301
议程项目	-2302
istan	-2303
联系	-2304
重申	-2305
▁29	-2306
hold	-2307
▁instru	-2308
受害	-2309
▁taking	-2310
22	-2311
统计	-2312
理会	-2313
▁best	-2314
orteur	-2315
▁resolutions	-2316
裁军	-2317
▁"""	-2318
▁centre	-2319
▁quality	-2320
联邦	-2321
▁indig	-2322
规定的	-2323
▁rapporteur	-2324
组织的	-2325
残疾	-2326
▁pen	-2327
提供的	-2328
来的	-2329
▁context	-2330
因素	-2331
了解	-2332
▁here	-2333
▁permanent	-2334
恐怖主义	-2335
▁本	-2336
▁five	-2337
▁posi	-2338
▁standards	-2339
▁indigenous	-2340
申请	-2341
拉克	-2342
提供了	-2343
安理会	-2344
ug	-2345
成功	-2346
mate	-2347
▁contract	-2348
▁apr	-2349
一直	-2350
到了	-2351
重新	-2352
▁january	-2353
izing	-2354
▁problems	-2355
▁ill	-2356
▁move	-2357
▁called	-2358
▁wish	-2359
长期	-2360
他们的	-2361
less	-2362
就业	-2363
▁say	-2364
▁mandate	-2365
▁give	-2366
▁sour	-2367
▁requested	-2368
ison	-2369
▁occup	-2370
ock	-2371
所需	-2372
▁eth	-2373
▁adoption	-2374
▁reported	-2375
全国	-2376
▁peaceke	-2377
26	-2378
选择	-2379
▁serious	-2380
ising	-2381
▁certain	-2382
材料	-2383
▁production	-2384
▁might	-2385
27	-2386
宣言	-2387
▁reporting	-2388
▁planning	-2389
同意	-2390
▁diffic	-2391
▁chinese	-2392
he	-2393
▁armed	-2394
▁treatment	-2395
之一	-2396
40	-2397
这方面	-2398
side	-2399
ned	-2400
年度	-2401
▁refuge	-2402
▁april	-2403
▁pric	-2404
多数	-2405
组成	-2406
▁old	-2407
▁house	-2408
▁mig	-2409
▁responsibility	-2410
保证	-2411
印度	-2412
2012	-2413
▁gir	-2414
▁reach	-2415
▁observ	-2416
▁sal	-2417
▁pres	-2418
▁governmental	-2419
论坛	-2420
▁next	-2421
▁sk	-2422
打击	-2423
▁eli	-2424
城市	-2425
ds	-2426
发挥	-2427
▁self	-2428
▁requests	-2429
》,	-2430
的第	-2431
结束	-2432
▁team	-2433
▁concerning	-2434
设计	-2435
的重要	-2436
reg	-2437
自己的	-2438
▁mor	-2439
发达	-2440
tices	-2441
协议	-2442
新闻	-2443
▁assessment	-2444
28	-2445
▁least	-2446
▁recent	-2447
▁mal	-2448
▁maintain	-2449
▁ira	-2450
▁come	-2451
▁belie	-2452
▁never	-2453
好的	-2454
罗斯	-2455
▁lear	-2456
▁terms	-2457
enth	-2458
isms	-2459
威胁	-2460
网络	-2461
thers	-2462
rec	-2463
导致	-2464
▁但是	-2465
ax	-2466
ick	-2467
推动	-2468
iting	-2469
▁sug	-2470
符合	-2471
▁el	-2472
▁iraq	-2473
▁regarding	-2474
结论	-2475
在其	-2476
发现	-2477
明确	-2478
▁partnership	-2479
.1	-2480
▁subject	-2481
一切	-2482
伊拉克	-2483
▁palestin	-2484
▁trib	-2485
▁democra	-2486
总统	-2487
的国际	-2488
▁increasing	-2489
▁peacekeeping	-2490
大学	-2491
▁procedures	-2492
对话	-2493
ior	-2494
的最	-2495
▁existing	-2496
▁room	-2497
▁terrorism	-2498
定期	-2499
阶段	-2500
▁tim	-2501
▁minister	-2502
ances	-2503
▁legislation	-2504
ready	-2505
▁goals	-2506
▁hold	-2507
人类	-2508
▁sim	-2509
承认	-2510
▁already	-2511
▁investment	-2512
普遍	-2513
▁lit	-2514
的权利	-2515
某些	-2516
ending	-2517
▁%	-2518
完全	-2519
部长	-2520
gether	-2521
▁deal	-2522
专门	-2523
▁due	-2524
▁contained	-2525
▁sup	-2526
事件	-2527
请求	-2528
纳入	-2529
▁lack	-2530
ried	-2531
▁analysis	-2532
▁funds	-2533
制订	-2534
sian	-2535
▁unit	-2536
▁threat	-2537
非法	-2538
进行了	-2539
▁rate	-2540
▁bal	-2541
▁tas	-2542
ipment	-2543
▁response	-2544
line	-2545
▁income	-2546
▁expressed	-2547
准备	-2548
▁sol	-2549
oss	-2550
angu	-2551
▁exch	-2552
准则	-2553
遵守	-2554
▁cod	-2555
专员	-2556
▁statis	-2557
▁close	-2558
▁但	-2559
▁effic	-2560
▁wee	-2561
呼吁	-2562
tional	-2563
上述	-2564
oy	-2565
▁example	-2566
▁constitution	-2567
内部	-2568
▁administration	-2569
保持	-2570
▁return	-2571
▁mechanisms	-2572
▁strengthening	-2573
▁他们	-2574
has	-2575
▁forces	-2576
uted	-2577
▁practices	-2578
关键	-2579
只有	-2580
会议的	-2581
▁challenges	-2582
重要的	-2583
▁dial	-2584
▁lat	-2585
▁employment	-2586
▁often	-2587
程度	-2588
▁fully	-2589
▁arr	-2590
▁eas	-2591
维持和平	-2592
▁appe	-2593
▁cust	-2594
面临	-2595
可持续发展	-2596
▁4.	-2597
aring	-2598
▁problem	-2599
▁mid	-2600
▁有	-2601
▁together	-2602
aw	-2603
伙伴关系	-2604
条款	-2605
核武器	-2606
▁performance	-2607
记录	-2608
▁experts	-2609
▁days	-2610
员额	-2611
ng	-2612
危机	-2613
abilities	-2614
▁forum	-2615
▁freed	-2616
utes	-2617
▁included	-2618
来自	-2619
▁为	-2620
俄罗斯	-2621
▁contributions	-2622
▁become	-2623
▁table	-2624
▁langu	-2625
tered	-2626
学校	-2627
群体	-2628
ends	-2629
▁gr	-2630
▁practice	-2631
▁democratic	-2632
经常	-2633
▁relating	-2634
不断	-2635
ways	-2636
感到	-2637
▁met	-2638
土地	-2639
▁agency	-2640
sel	-2641
▁past	-2642
ump	-2643
违反	-2644
▁thus	-2645
价值	-2646
工作的	-2647
▁east	-2648
▁equality	-2649
▁transport	-2650
▁cred	-2651
▁previous	-2652
▁freedom	-2653
▁short	-2654
▁emphas	-2655
合同	-2656
自然	-2657
适用	-2658
专业	-2659
定的	-2660
ding	-2661
▁think	-2662
60	-2663
itation	-2664
当地	-2665
▁aug	-2666
ledge	-2667
▁america	-2668
特别报告员	-2669
1999	-2670
▁provides	-2671
▁conven	-2672
保健	-2673
▁conn	-2674
▁asp	-2675
民族	-2676
考虑到	-2677
▁age	-2678
估计	-2679
质量	-2680
▁protect	-2681
执行情况	-2682
▁dialog	-2683
▁too	-2684
▁authority	-2685
▁ministry	-2686
侵犯	-2687
titute	-2688
的规定	-2689
整个	-2690
▁model	-2691
▁prosec	-2692
▁equipment	-2693
这是	-2694
▁determin	-2695
不可	-2696
▁director	-2697
▁light	-2698
▁far	-2699
▁peoples	-2700
扩大	-2701
aced	-2702
▁dest	-2703
▁exc	-2704
▁company	-2705
▁division	-2706
▁它	-2707
▁对	-2708
▁addressed	-2709
第十	-2710
和国际	-2711
mission	-2712
事实	-2713
气候	-2714
▁obligations	-2715
omp	-2716
org	-2717
▁yet	-2718
▁leaders	-2719
▁sent	-2720
▁bra	-2721
▁took	-2722
29	-2723
▁promotion	-2724
▁providing	-2725
应用	-2726
计算	-2727
▁rati	-2728
▁basic	-2729
force	-2730
▁reduction	-2731
▁effect	-2732
▁active	-2733
▁tal	-2734
的活动	-2735
aged	-2736
▁labour	-2737
▁transfer	-2738
▁bill	-2739
▁refer	-2740
的所有	-2741
▁“	-2742
▁fail	-2743
▁financing	-2744
▁A	-2745
ours	-2746
▁broad	-2747
▁rus	-2748
还有	-2749
▁date	-2750
dd	-2751
两年期	-2752
titled	-2753
▁paper	-2754
▁50	-2755
这项	-2756
▁low	-2757
▁discuss	-2758
捐助	-2759
重点	-2760
▁few	-2761
▁cy	-2762
宪法	-2763
登记	-2764
▁decisions	-2765
aster	-2766
▁annual	-2767
▁palestinian	-2768
▁pursu	-2769
▁matters	-2770
2013	-2771
▁sci	-2772
▁early	-2773
我们的	-2774
▁line	-2775
▁ess	-2776
▁collec	-2777
▁victi	-2778
▁victims	-2779
▁property	-2780
应对	-2781
收到	-2782
农业	-2783
▁camp	-2784
▁press	-2785
设备	-2786
ricult	-2787
▁feb	-2788
▁august	-2789
itiz	-2790
▁desc	-2791
从而	-2792
恢复	-2793
和社会	-2794
▁arrange	-2795
▁today	-2796
ruary	-2797
▁exerc	-2798
加入	-2799
电子	-2800
▁want	-2801
ological	-2802
▁position	-2803
的能力	-2804
▁bar	-2805
显示	-2806
更加	-2807
▁agricult	-2808
一级	-2809
生物	-2810
▁mean	-2811
▁having	-2812
▁mechanism	-2813
▁economy	-2814
used	-2815
▁panel	-2816
拥有	-2817
ops	-2818
的主要	-2819
▁documents	-2820
▁decided	-2821
▁february	-2822
解释	-2823
水平	-2824
一起	-2825
▁outc	-2826
很多	-2827
第四	-2828
▁trafficking	-2829
▁当	-2830
▁poten	-2831
▁strategic	-2832
▁undp	-2833
▁coll	-2834
▁wide	-2835
)(	-2836
ics	-2837
▁value	-2838
por	-2839
▁recall	-2840
onst	-2841
▁dialogue	-2842
bs	-2843
▁home	-2844
学生	-2845
重大	-2846
▁cop	-2847
采取的	-2848
▁ve	-2849
一样	-2850
liance	-2851
▁conclud	-2852
▁fl	-2853
改进	-2854
1998	-2855
反对	-2856
外国	-2857
ina	-2858
▁sing	-2859
ream	-2860
▁saf	-2861
mental	-2862
%。	-2863
工具	-2864
▁proceed	-2865
工程	-2866
lusion	-2867
▁final	-2868
▁needed	-2869
▁little	-2870
宗教	-2871
▁alth	-2872
举行的	-2873
▁detail	-2874
▁organized	-2875
▁around	-2876
▁matter	-2877
▁actions	-2878
▁1996	-2879
▁although	-2880
▁judic	-2881
aran	-2882
▁profession	-2883
▁origin	-2884
▁consultations	-2885
""。"	-2886
unch	-2887
联合国系统	-2888
▁letter	-2889
▁一	-2890
▁stress	-2891
第五	-2892
▁body	-2893
ians	-2894
▁forms	-2895
▁internal	-2896
▁procedure	-2897
同样	-2898
▁questions	-2899
助于	-2900
日本	-2901
▁commitment	-2902
资产	-2903
itory	-2904
▁operational	-2905
val	-2906
▁tribun	-2907
anced	-2908
▁然而	-2909
▁cover	-2910
hance	-2911
▁《	-2912
▁able	-2913
▁temp	-2914
▁climate	-2915
法官	-2916
▁island	-2917
出口	-2918
▁5.	-2919
▁always	-2920
by	-2921
▁laws	-2922
▁others	-2923
▁responsible	-2924
▁arms	-2925
孩子	-2926
acy	-2927
▁bring	-2928
▁ground	-2929
还是	-2930
所述	-2931
▁bur	-2932
▁safety	-2933
▁point	-2934
▁notes	-2935
▁demand	-2936
▁knowledge	-2937
198	-2938
▁evaluation	-2939
贡献	-2940
▁top	-2941
▁adequ	-2942
hib	-2943
▁associ	-2944
规模	-2945
▁workers	-2946
▁initiatives	-2947
令人	-2948
传统	-2949
能源	-2950
▁young	-2951
▁israel	-2952
尊重	-2953
证明	-2954
▁pass	-2955
机构的	-2956
达成	-2957
▁asia	-2958
to	-2959
保留	-2960
确认	-2961
terpr	-2962
▁communication	-2963
起来	-2964
▁ic	-2965
倡议	-2966
旨在	-2967
▁jap	-2968
ints	-2969
▁missions	-2970
局势	-2971
▁ms	-2972
▁multi	-2973
▁please	-2974
▁tur	-2975
▁gre	-2976
▁appo	-2977
文书	-2978
▁objec	-2979
▁funding	-2980
给予	-2981
活动的	-2982
▁japan	-2983
▁territor	-2984
不得	-2985
海洋	-2986
▁scienti	-2987
西亚	-2988
下列	-2989
lied	-2990
▁natural	-2991
▁40	-2992
基金会	-2993
▁using	-2994
▁objective	-2995
▁regulations	-2996
▁kind	-2997
▁distrib	-2998
cent	-2999
▁1997	-3000
▁hist	-3001
▁territory	-3002
▁name	-3003
▁guidel	-3004
▁target	-3005
工业	-3006
情况下	-3007
▁60	-3008
ging	-3009
ression	-3010
个月	-3011
落实	-3012
了一个	-3013
▁unf	-3014
▁living	-3015
粮食	-3016
▁ste	-3017
▁custom	-3018
▁operation	-3019
cy	-3020
编制	-3021
做出	-3022
▁money	-3023
▁teach	-3024
▁iii	-3025
▁medical	-3026
基于	-3027
▁continu	-3028
举办	-3029
▁star	-3030
▁lim	-3031
外交	-3032
▁bre	-3033
▁sexual	-3034
▁independent	-3035
医疗	-3036
▁ide	-3037
千年	-3038
危险	-3039
劳动	-3040
▁关于	-3041
gu	-3042
的法律	-3043
use	-3044
性和	-3045
▁statements	-3046
▁1994	-3047
▁cris	-3048
也是	-3049
▁dev	-3050
▁forward	-3051
▁priority	-3052
有助于	-3053
▁根据	-3054
▁2014	-3055
▁exchange	-3056
进入	-3057
▁once	-3058
的建议	-3059
声明	-3060
条第	-3061
美洲	-3062
ati	-3063
▁code	-3064
▁higher	-3065
▁fourth	-3066
官员	-3067
死亡	-3068
分配	-3069
改变	-3070
支付	-3071
贩运	-3072
都是	-3073
▁abs	-3074
商业	-3075
并不	-3076
▁harm	-3077
▁nature	-3078
宣传	-3079
访问	-3080
▁compe	-3081
):	-3082
rast	-3083
▁sugges	-3084
扩散	-3085
▁resid	-3086
▁rac	-3087
▁network	-3088
▁cann	-3089
▁expected	-3090
▁obser	-3091
▁greater	-3092
管制	-3093
通知	-3094
将在	-3095
▁experience	-3096
实体	-3097
来说	-3098
理由	-3099
rup	-3100
▁solution	-3101
▁violations	-3102
▁limit	-3103
▁promoting	-3104
▁recommendation	-3105
——	-3106
尤其是	-3107
▁chap	-3108
▁crisis	-3109
超过	-3110
ury	-3111
▁safe	-3112
▁counter	-3113
aff	-3114
女士	-3115
拘留	-3116
竞争	-3117
▁pat	-3118
提出了	-3119
检查	-3120
aken	-3121
arters	-3122
▁principle	-3123
▁cal	-3124
发达国家	-3125
力的	-3126
并在	-3127
所以	-3128
今天	-3129
▁happ	-3130
▁relig	-3131
构成	-3132
▁plans	-3133
下午	-3134
▁involved	-3135
万美元	-3136
ible	-3137
缺乏	-3138
的情况下	-3139
▁consist	-3140
acter	-3141
达到	-3142
▁expend	-3143
ably	-3144
▁explo	-3145
民间	-3146
▁citiz	-3147
▁rural	-3148
ww	-3149
价格	-3150
▁king	-3151
▁potential	-3152
供应	-3153
▁complain	-3154
条例	-3155
成员国	-3156
▁experi	-3157
编写	-3158
ither	-3159
▁tran	-3160
▁biennium	-3161
▁changes	-3162
列入	-3163
运输	-3164
▁chairman	-3165
调整	-3166
▁capital	-3167
▁aust	-3168
▁travel	-3169
▁agreements	-3170
▁limited	-3171
▁prepared	-3172
的努力	-3173
ix	-3174
总部	-3175
▁aut	-3176
提议	-3177
现象	-3178
相互	-3179
▁volu	-3180
▁approved	-3181
紧急	-3182
▁discussion	-3183
机关	-3184
▁until	-3185
▁months	-3186
协会	-3187
如此	-3188
青年	-3189
行动计划	-3190
▁reli	-3191
xim	-3192
的方式	-3193
▁reason	-3194
▁integrated	-3195
手段	-3196
medi	-3197
▁test	-3198
uty	-3199
▁red	-3200
▁death	-3201
63	-3202
▁strategies	-3203
▁unc	-3204
发展目标	-3205
主管	-3206
满足	-3207
困难	-3208
over	-3209
▁remo	-3210
▁course	-3211
大量	-3212
指标	-3213
▁acts	-3214
45	-3215
48	-3216
享有	-3217
veness	-3218
▁trust	-3219
一份	-3220
成立	-3221
▁purpose	-3222
▁overall	-3223
允许	-3224
▁anti	-3225
委会	-3226
▁communications	-3227
▁steps	-3228
▁guidelines	-3229
回顾	-3230
英语	-3231
交易	-3232
▁1995	-3233
▁affected	-3234
▁delegations	-3235
贫穷	-3236
▁guaran	-3237
vere	-3238
▁il	-3239
)、	-3240
▁ele	-3241
你们	-3242
▁headqu	-3243
▁fr	-3244
▁alleg	-3245
70	-3246
wa	-3247
方案的	-3248
若干	-3249
计划署	-3250
ilar	-3251
▁surve	-3252
少数	-3253
▁american	-3254
创造	-3255
▁tribunal	-3256
▁conduct	-3257
▁loss	-3258
▁essential	-3259
宣布	-3260
大多数	-3261
▁standard	-3262
uter	-3263
农村	-3264
化学	-3265
▁run	-3266
▁understanding	-3267
反映	-3268
进行的	-3269
▁offices	-3270
▁supported	-3271
那么	-3272
app	-3273
▁whole	-3274
首脑	-3275
▁begin	-3276
▁headquarters	-3277
交流	-3278
精神	-3279
▁informal	-3280
的发展	-3281
▁equal	-3282
和第	-3283
酷刑	-3284
该国	-3285
▁adj	-3286
▁arm	-3287
数量	-3288
rial	-3289
▁cannot	-3290
▁mob	-3291
▁flow	-3292
ograph	-3293
然后	-3294
▁opportunities	-3295
▁girls	-3296
补充	-3297
thern	-3298
▁reserv	-3299
▁similar	-3300
▁products	-3301
▁refugees	-3302
▁objectives	-3303
akes	-3304
修订	-3305
▁chem	-3306
ified	-3307
▁recommended	-3308
▁love	-3309
签署	-3310
▁fifth	-3311
ased	-3312
▁hiv	-3313
支出	-3314
▁why	-3315
erate	-3316
▁.6	-3317
议会	-3318
oses	-3319
action	-3320
▁media	-3321
下的	-3322
意义	-3323
35	-3324
一名	-3325
ured	-3326
▁tort	-3327
▁displ	-3328
areness	-3329
▁resource	-3330
▁committed	-3331
4/	-3332
苏丹	-3333
ulated	-3334
▁coven	-3335
▁respond	-3336
▁awareness	-3337
tt	-3338
的信	-3339
ones	-3340
▁expendit	-3341
通常	-3342
▁famil	-3343
实行	-3344
▁competi	-3345
▁turn	-3346
历史	-3347
▁hard	-3348
▁tool	-3349
▁audit	-3350
▁implementing	-3351
▁expl	-3352
▁minor	-3353
▁launch	-3354
的时候	-3355
▁face	-3356
后续	-3357
财产	-3358
▁week	-3359
决策	-3360
100	-3361
▁carry	-3362
▁former	-3363
▁transition	-3364
▁fa	-3365
索赔	-3366
oming	-3367
▁worksh	-3368
而言	-3369
采购	-3370
lected	-3371
▁dam	-3372
亚洲	-3373
▁seem	-3374
▁speak	-3375
十分	-3376
rop	-3377
▁near	-3378
▁function	-3379
▁currently	-3380
▁officials	-3381
看到	-3382
题为	-3383
权力	-3384
▁issued	-3385
团体	-3386
职业	-3387
▁carried	-3388
▁initiative	-3389
iction	-3390
▁share	-3391
申诉	-3392
和发展	-3393
▁collab	-3394
▁6.	-3395
的基础	-3396
▁class	-3397
▁instruments	-3398
wh	-3399
▁road	-3400
▁consequ	-3401
森林	-3402
▁done	-3403
▁facilities	-3404
▁arrangements	-3405
▁pursuant	-3406
每个	-3407
bit	-3408
urs	-3409
▁insp	-3410
提交人	-3411
▁separ	-3412
uations	-3413
▁feel	-3414
全体	-3415
▁deep	-3416
▁communities	-3417
维护	-3418
▁hous	-3419
▁benefits	-3420
▁facilitate	-3421
▁vul	-3422
多边	-3423
亿美元	-3424
▁going	-3425
▁summit	-3426
▁tradition	-3427
▁apprec	-3428
▁positive	-3429
▁relationship	-3430
▁implemented	-3431
tors	-3432
▁imm	-3433
▁proposal	-3434
感谢	-3435
▁evidence	-3436
67	-3437
pa	-3438
损失	-3439
▁methods	-3440
▁tax	-3441
▁expert	-3442
治疗	-3443
职能	-3444
gent	-3445
▁hours	-3446
▁below	-3447
▁proposals	-3448
joy	-3449
▁keep	-3450
▁posts	-3451
▁covenant	-3452
▁apply	-3453
loyment	-3454
▁stated	-3455
▁ce	-3456
▁bord	-3457
dle	-3458
▁identify	-3459
lies	-3460
▁city	-3461
移民	-3462
证据	-3463
▁aspects	-3464
地点	-3465
来源	-3466
▁presented	-3467
特殊	-3468
避免	-3469
授权	-3470
▁由于	-3471
rastruc	-3472
▁vulner	-3473
ded	-3474
▁pun	-3475
▁universal	-3476
of	-3477
非正式	-3478
atch	-3479
▁fundament	-3480
和平与	-3481
▁opportunity	-3482
dom	-3483
属于	-3484
▁desp	-3485
▁character	-3486
▁provisional	-3487
▁1993	-3488
suring	-3489
▁dri	-3490
▁items	-3491
▁articles	-3492
▁officers	-3493
发表	-3494
▁rein	-3495
▁infrastruc	-3496
▁与	-3497
▁adequate	-3498
通过了	-3499
日内	-3500
人数	-3501
kets	-3502
▁multil	-3503
▁immedi	-3504
▁behalf	-3505
学习	-3506
▁regist	-3507
ming	-3508
▁del	-3509
ounts	-3510
▁text	-3511
▁structure	-3512
加以	-3513
▁aids	-3514
各方	-3515
成本	-3516
债务	-3517
▁percent	-3518
49	-3519
另外	-3520
核心	-3521
glish	-3522
▁functions	-3523
艾滋病毒	-3524
%,	-3525
不仅	-3526
eli	-3527
▁poor	-3528
isc	-3529
73	-3530
que	-3531
▁effects	-3532
国际法	-3533
▁den	-3534
本国	-3535
课程	-3536
ars	-3537
vered	-3538
▁construction	-3539
▁chemical	-3540
▁commissioner	-3541
tiveness	-3542
十年	-3543
oid	-3544
▁emb	-3545
赔偿	-3546
affir	-3547
▁sea	-3548
▁aimed	-3549
▁exercise	-3550
ze	-3551
▁reaffir	-3552
受害者	-3553
马里	-3554
▁categ	-3555
提案	-3556
▁direc	-3557
reme	-3558
私营	-3559
uel	-3560
selves	-3561
尚未	-3562
inted	-3563
▁conducted	-3564
▁reference	-3565
和技术	-3566
▁dr	-3567
▁reduce	-3568
今后	-3569
统一	-3570
▁phys	-3571
▁combat	-3572
▁university	-3573
增强	-3574
wor	-3575
ides	-3576
▁torture	-3577
▁industry	-3578
▁manag	-3579
▁rather	-3580
模式	-3581
vernmental	-3582
1996	-3583
ought	-3584
way	-3585
实质	-3586
民间社会	-3587
详细	-3588
going	-3589
▁individuals	-3590
▁cross	-3591
提到	-3592
▁cha	-3593
通过的	-3594
▁cho	-3595
▁fil	-3596
日在	-3597
▁remains	-3598
纽约	-3599
▁complete	-3600
;"	-3601
媒体	-3602
ored	-3603
未来	-3604
lam	-3605
▁7.	-3606
most	-3607
urement	-3608
▁respective	-3609
占领	-3610
uses	-3611
rought	-3612
有限	-3613
▁ger	-3614
▁host	-3615
▁scientific	-3616
除了	-3617
▁citizens	-3618
▁york	-3619
女性	-3620
承担	-3621
▁away	-3622
ipl	-3623
》(	-3624
主任	-3625
通信	-3626
▁compon	-3627
▁multilateral	-3628
▁institutional	-3629
的事	-3630
▁undertaken	-3631
六十	-3632
比例	-3633
单位	-3634
妇女的	-3635
▁accept	-3636
▁students	-3637
认识到	-3638
▁interp	-3639
拟议	-3640
▁stake	-3641
比较	-3642
1997	-3643
▁processes	-3644
▁negotiations	-3645
只是	-3646
罪行	-3647
forcement	-3648
▁bel	-3649
▁north	-3650
eva	-3651
香港	-3652
▁infrastructure	-3653
贫困	-3654
所载	-3655
过程中	-3656
▁judicial	-3657
传播	-3658
我国	-3659
▁amend	-3660
本报告	-3661
各国政府	-3662
▁fundamental	-3663
▁obtain	-3664
再次	-3665
▁inn	-3666
▁regions	-3667
▁urban	-3668
▁circum	-3669
▁millennium	-3670
▁port	-3671
▁primary	-3672
▁restric	-3673
▁recommends	-3674
不足	-3675
最不	-3676
omin	-3677
▁lin	-3678
修正	-3679
宪章	-3680
如下	-3681
战争	-3682
最高	-3683
电话	-3684
uts	-3685
▁prison	-3686
▁compliance	-3687
收集	-3688
enty	-3689
▁prohib	-3690
密切	-3691
na	-3692
▁.7	-3693
▁alloc	-3694
▁informed	-3695
移徙	-3696
▁ten	-3697
告诉	-3698
号决定	-3699
33	-3700
ha	-3701
巴嫩	-3702
ature	-3703
▁35	-3704
黎巴嫩	-3705
▁big	-3706
▁jur	-3707
▁try	-3708
▁iv	-3709
ology	-3710
▁manner	-3711
日内瓦	-3712
▁suff	-3713
▁altern	-3714
▁middle	-3715
▁professional	-3716
▁dated	-3717
▁times	-3718
▁views	-3719
dan	-3720
eren	-3721
▁log	-3722
▁concerns	-3723
训练	-3724
会议上	-3725
里亚	-3726
▁mention	-3727
专题	-3728
拟订	-3729
气候变化	-3730
妇女和	-3731
ilateral	-3732
有些	-3733
消费	-3734
答复	-3735
喜欢	-3736
ada	-3737
iency	-3738
有效的	-3739
▁charter	-3740
▁compens	-3741
▁outcome	-3742
体制	-3743
▁contribute	-3744
▁materials	-3745
出版	-3746
透明	-3747
▁fifty	-3748
▁culture	-3749
ij	-3750
欧洲联盟	-3751
▁sett	-3752
▁leban	-3753
▁russian	-3754
▁language	-3755
至少	-3756
tire	-3757
从事	-3758
ador	-3759
伊斯	-3760
富汗	-3761
政府间	-3762
阿富汗	-3763
▁har	-3764
▁successful	-3765
▁geneva	-3766
刚果	-3767
鉴于	-3768
ying	-3769
取得的	-3770
观察员	-3771
▁recognized	-3772
lif	-3773
▁claims	-3774
▁detention	-3775
多样	-3776
wing	-3777
fficient	-3778
▁describ	-3779
▁companies	-3780
常驻	-3781
以前	-3782
及社会	-3783
▁summary	-3784
▁families	-3785
的其他	-3786
▁hope	-3787
效率	-3788
政策和	-3789
组织和	-3790
▁fish	-3791
境内	-3792
加拿	-3793
orn	-3794
自愿	-3795
寻求	-3796
olid	-3797
ring	-3798
概念	-3799
咨询委员会	-3800
icef	-3801
反应	-3802
法国	-3803
▁afgh	-3804
▁ty	-3805
▁migr	-3806
▁task	-3807
ortion	-3808
▁israeli	-3809
▁asked	-3810
▁demonst	-3811
▁differen	-3812
予以	-3813
▁connection	-3814
每年	-3815
引起	-3816
▁du	-3817
tities	-3818
的作用	-3819
▁industrial	-3820
部署	-3821
▁led	-3822
▁critical	-3823
▁difficult	-3824
▁34	-3825
三个	-3826
检察	-3827
illed	-3828
▁believe	-3829
▁rates	-3830
▁punish	-3831
毒品	-3832
身份	-3833
▁integration	-3834
80	-3835
▁calls	-3836
▁crimes	-3837
ferences	-3838
出了	-3839
▁goods	-3840
所作	-3841
Add	-3842
1995	-3843
▁100	-3844
▁itself	-3845
以上	-3846
才能	-3847
▁lib	-3848
▁sudan	-3849
▁advance	-3850
inion	-3851
▁preparation	-3852
▁tell	-3853
公众	-3854
▁came	-3855
ires	-3856
▁live	-3857
nic	-3858
▁”	-3859
药物	-3860
▁36	-3861
ung	-3862
千年发展目标	-3863
的经济	-3864
▁statistics	-3865
其它	-3866
▁parli	-3867
▁examin	-3868
▁opinion	-3869
rary	-3870
高级专员	-3871
anda	-3872
▁dise	-3873
▁half	-3874
▁range	-3875
▁things	-3876
甚至	-3877
▁oil	-3878
istic	-3879
▁kore	-3880
▁inten	-3881
▁afghan	-3882
步骤	-3883
理解	-3884
▁hos	-3885
aries	-3886
mal	-3887
▁youth	-3888
召开	-3889
▁33	-3890
伊斯兰	-3891
生命	-3892
相信	-3893
语言	-3894
aps	-3895
▁job	-3896
▁throughout	-3897
来越	-3898
▁bir	-3899
▁mind	-3900
ees	-3901
▁event	-3902
hab	-3903
▁participants	-3904
筹备	-3905
▁cle	-3906
▁supply	-3907
人和	-3908
另一	-3909
▁ways	-3910
公开	-3911
▁.9	-3912
▁juris	-3913
▁appear	-3914
▁disabilities	-3915
ik	-3916
ification	-3917
诉讼	-3918
担任	-3919
系列	-3920
▁aver	-3921
tees	-3922
必要的	-3923
律师	-3924
omed	-3925
失所	-3926
urance	-3927
liferation	-3928
重视	-3929
越来越	-3930
▁fem	-3931
迅速	-3932
居民	-3933
new	-3934
▁neg	-3935
开发计划署	-3936
▁activity	-3937
行动纲	-3938
▁inj	-3939
▁improved	-3940
▁debt	-3941
▁improving	-3942
pid	-3943
racy	-3944
izes	-3945
▁commitments	-3946
▁substantive	-3947
the	-3948
▁german	-3949
▁despite	-3950
的新	-3951
经济及社会	-3952
▁arbit	-3953
:“	-3954
》。	-3955
流离	-3956
▁fig	-3957
▁pac	-3958
保险	-3959
1994	-3960
▁got	-3961
uting	-3962
公平	-3963
指控	-3964
数字	-3965
▁prec	-3966
▁defin	-3967
▁chapter	-3968
▁nam	-3969
▁along	-3970
▁indicated	-3971
▁paragraphs	-3972
▁B	-3973
holders	-3974
▁federal	-3975
带来	-3976
真正	-3977
▁unicef	-3978
对其	-3979
加拿大	-3980
行动的	-3981
▁minim	-3982
▁identified	-3983
依据	-3984
流离失所	-3985
erous	-3986
▁susp	-3987
▁elimination	-3988
xic	-3989
网站	-3990
▁intergo	-3991
▁legislative	-3992
复杂	-3993
目的是	-3994
▁dol	-3995
.2	-3996
干事	-3997
愿意	-3998
降低	-3999
ier	-4000
af	-4001
▁says	-4002
▁civilian	-4003
▁interests	-4004
▁upd	-4005
似乎	-4006
▁words	-4007
▁physical	-4008
适当的	-4009
定义	-4010
ief	-4011
▁37	-4012
▁fav	-4013
▁benefit	-4014
▁achieved	-4015
她的	-4016
范围内	-4017
ensus	-4018
▁outside	-4019
▁science	-4020
iary	-4021
▁institute	-4022
arent	-4023
tification	-4024
破坏	-4025
ins	-4026
▁55	-4027
▁57	-4028
▁typ	-4029
itable	-4030
sibilities	-4031
ories	-4032
▁governance	-4033
ler	-4034
▁48	-4035
朋友	-4036
预期	-4037
▁across	-4038
▁centres	-4039
人力	-4040
的目标	-4041
双方	-4042
▁appeal	-4043
此类	-4044
观点	-4045
▁尽管	-4046
敦促	-4047
趋势	-4048
运作	-4049
sign	-4050
▁assets	-4051
▁expand	-4052
ipp	-4053
▁volunt	-4054
▁1990	-4055
▁hong	-4056
fact	-4057
▁federation	-4058
依照	-4059
▁58	-4060
▁pub	-4061
▁peaceful	-4062
各个	-4063
▁soon	-4064
▁introduced	-4065
平民	-4066
日期	-4067
▁q	-4068
转让	-4069
顾问	-4070
▁avoid	-4071
▁8.	-4072
▁amb	-4073
orary	-4074
随着	-4075
/3	-4076
过渡	-4077
▁left	-4078
stances	-4079
▁purposes	-4080
▁estimated	-4081
▁那	-4082
gest	-4083
▁mut	-4084
works	-4085
首先	-4086
▁trend	-4087
▁circumstances	-4088
灾害	-4089
▁referred	-4090
任命	-4091
▁197	-4092
住房	-4093
障碍	-4094
tenance	-4095
出席	-4096
ii	-4097
rict	-4098
▁visit	-4099
的任何	-4100
rest	-4101
次会议上	-4102
▁maintenance	-4103
▁create	-4104
▁fire	-4105
rip	-4106
.3	-4107
东西	-4108
合理	-4109
bo	-4110
▁radi	-4111
▁ongoing	-4112
▁traditional	-4113
有利	-4114
region	-4115
▁effort	-4116
体系	-4117
这类	-4118
社会和	-4119
▁guidance	-4120
化的	-4121
表现	-4122
ris	-4123
一定	-4124
▁acqu	-4125
主题	-4126
最终	-4127
▁59	-4128
经济及社会理事会	-4129
▁includes	-4130
▁adjust	-4131
▁schools	-4132
出的	-4133
▁brief	-4134
▁proliferation	-4135
▁请	-4136
▁秘书长	-4137
▁governing	-4138
2014	-4139
▁scale	-4140
▁goal	-4141
▁source	-4142
▁billion	-4143
▁vote	-4144
ery	-4145
▁emergency	-4146
下降	-4147
德国	-4148
▁hon	-4149
▁conv	-4150
▁unct	-4151
ancing	-4152
minate	-4153
osition	-4154
▁compet	-4155
▁price	-4156
▁ethnic	-4157
平均	-4158
ills	-4159
▁west	-4160
▁parliament	-4161
儿童基金会	-4162
▁distribution	-4163
▁eg	-4164
能力建设	-4165
▁effectively	-4166
有权	-4167
▁side	-4168
▁recru	-4169
▁housing	-4170
地区的	-4171
▁personal	-4172
mpt	-4173
▁export	-4174
▁sessions	-4175
▁recon	-4176
▁movement	-4177
有所	-4178
▁finance	-4179
其中包括	-4180
▁forest	-4181
▁twenty	-4182
▁association	-4183
贸发	-4184
▁65	-4185
▁ever	-4186
公正	-4187
机构和	-4188
▁dar	-4189
▁territories	-4190
致力	-4191
ourn	-4192
▁india	-4193
▁studies	-4194
▁fall	-4195
▁satis	-4196
的信息	-4197
ternal	-4198
▁pacific	-4199
▁submission	-4200
▁penal	-4201
▁dollar	-4202
▁participate	-4203
▁39	-4204
的行为	-4205
伊朗	-4206
的决定	-4207
基础设施	-4208
▁publish	-4209
的大	-4210
▁stock	-4211
▁kingdom	-4212
▁elements	-4213
分别	-4214
性质	-4215
courage	-4216
物质	-4217
"",	-4218
▁seek	-4219
▁revised	-4220
65	-4221
和保护	-4222
▁ey	-4223
▁这种	-4224
在这	-4225
来文	-4226
ectiveness	-4227
磋商	-4228
pro	-4229
▁chief	-4230
不扩散	-4231
more	-4232
▁core	-4233
核准	-4234
▁commerc	-4235
▁leave	-4236
资助	-4237
叙利亚	-4238
▁themselves	-4239
▁either	-4240
▁analy	-4241
▁whose	-4242
cr	-4243
ps	-4244
适用于	-4245
▁ord	-4246
▁fulf	-4247
▁effectiveness	-4248
hic	-4249
zer	-4250
▁unctad	-4251
▁technologies	-4252
国民	-4253
建筑	-4254
▁start	-4255
oph	-4256
在第	-4257
bia	-4258
福利	-4259
背景	-4260
▁gl	-4261
▁round	-4262
▁sources	-4263
▁32	-4264
ronic	-4265
▁C	-4266
立即	-4267
▁flo	-4268
上午	-4269
劳工	-4270
男女	-4271
▁extra	-4272
▁directly	-4273
的话	-4274
ats	-4275
▁unh	-4276
▁investigation	-4277
上诉	-4278
及时	-4279
ton	-4280
以确保	-4281
英国	-4282
▁dou	-4283
▁tro	-4284
▁vehic	-4285
班牙	-4286
讲习	-4287
西班牙	-4288
▁esc	-4289
▁在这方面	-4290
▁balance	-4291
▁election	-4292
▁.8	-4293
▁fre	-4294
▁complex	-4295
预计	-4296
▁大会	-4297
umption	-4298
▁really	-4299
损害	-4300
可能会	-4301
辩论	-4302
那样	-4303
古巴	-4304
▁parts	-4305
▁discussions	-4306
▁oh	-4307
aign	-4308
▁affect	-4309
▁stability	-4310
她们	-4311
生效	-4312
系统的	-4313
▁single	-4314
领域的	-4315
▁cut	-4316
适应	-4317
ligh	-4318
▁repl	-4319
▁points	-4320
▁something	-4321
▁64	-4322
▁liber	-4323
▁reiter	-4324
▁53	-4325
▁sectors	-4326
▁demonstr	-4327
▁scope	-4328
▁45	-4329
▁campaign	-4330
▁kong	-4331
▁signed	-4332
▁average	-4333
制造	-4334
1993	-4335
▁accomp	-4336
▁voluntary	-4337
bi	-4338
eth	-4339
light	-4340
▁takes	-4341
▁brought	-4342
相当	-4343
amb	-4344
▁mus	-4345
ically	-4346
pl	-4347
▁mass	-4348
▁struct	-4349
▁external	-4350
▁practical	-4351
明显	-4352
有人	-4353
发展的	-4354
▁later	-4355
几个	-4356
▁vac	-4357
▁factors	-4358
▁decl	-4359
行使	-4360
▁austral	-4361
几乎	-4362
的一些	-4363
▁involve	-4364
▁commercial	-4365
形成	-4366
起诉	-4367
▁events	-4368
两性	-4369
▁though	-4370
▁welcomed	-4371
讲习班	-4372
▁sixty	-4373
遭受	-4374
▁ir	-4375
▁gain	-4376
overy	-4377
▁fair	-4378
unic	-4379
▁applied	-4380
▁delivery	-4381
▁cause	-4382
审判	-4383
怎么	-4384
而不是	-4385
合法	-4386
gets	-4387
ites	-4388
▁cub	-4389
举措	-4390
ama	-4391
▁situations	-4392
会计	-4393
▁tele	-4394
货币	-4395
500	-4396
▁border	-4397
造成的	-4398
▁lower	-4399
ane	-4400
在内的	-4401
相关的	-4402
▁mis	-4403
▁educational	-4404
疾病	-4405
管辖	-4406
职位	-4407
▁iran	-4408
▁continues	-4409
▁indicators	-4410
▁developments	-4411
不要	-4412
类似	-4413
know	-4414
▁type	-4415
报告的	-4416
第二十	-4417
力量	-4418
拒绝	-4419
飞机	-4420
▁stakeholders	-4421
▁earth	-4422
▁exten	-4423
年龄	-4424
▁38	-4425
▁第二	-4426
▁disaster	-4427
▁从	-4428
▁wa	-4429
▁intel	-4430
46	-4431
▁为了	-4432
▁procurement	-4433
邀请	-4434
▁jurisd	-4435
▁proceedings	-4436
世纪	-4437
王国	-4438
儿童权利	-4439
高级别	-4440
▁thought	-4441
▁这一	-4442
▁subsequ	-4443
ene	-4444
服务的	-4445
▁seen	-4446
▁efficiency	-4447
更多的	-4448
的一部分	-4449
▁islam	-4450
▁abuse	-4451
▁associated	-4452
ident	-4453
▁known	-4454
本身	-4455
澳大	-4456
ana	-4457
▁国际	-4458
▁appoint	-4459
47	-4460
商品	-4461
:00	-4462
▁heart	-4463
探讨	-4464
的任务	-4465
澳大利亚	-4466
▁influ	-4467
接触	-4468
阿尔	-4469
将其	-4470
▁sl	-4471
.5	-4472
容易	-4473
▁sound	-4474
▁officer	-4475
维持和平行动	-4476
)。"	-4477
▁通过	-4478
▁difficul	-4479
介绍了	-4480
儿童的	-4481
▁mag	-4482
▁paid	-4483
▁canada	-4484
43	-4485
日益	-4486
有可能	-4487
bu	-4488
,《	-4489
▁ho	-4490
omal	-4491
▁disse	-4492
▁receive	-4493
▁wind	-4494
往往	-4495
oks	-4496
enary	-4497
女孩	-4498
捐款	-4499
ades	-4500
oral	-4501
▁sev	-4502
▁base	-4503
▁mentioned	-4504
rench	-4505
▁markets	-4506
ma	-4507
监狱	-4508
▁giv	-4509
▁modern	-4510
▁ability	-4511
致力于	-4512
▁recently	-4513
待遇	-4514
的方法	-4515
▁compensation	-4516
污染	-4517
▁虽然	-4518
采取行动	-4519
▁growing	-4520
▁comments	-4521
verse	-4522
estern	-4523
▁night	-4524
ya	-4525
▁61	-4526
行动纲领	-4527
意味	-4528
的重要性	-4529
▁elections	-4530
▁9.	-4531
▁中国	-4532
修改	-4533
▁49	-4534
ruption	-4535
。”	-4536
emp	-4537
time	-4538
▁subsid	-4539
view	-4540
土著人民	-4541
▁subregion	-4542
▁furthermore	-4543
▁syri	-4544
▁agricultural	-4545
年来	-4546
心理	-4547
ude	-4548
专家组	-4549
的资料	-4550
▁incor	-4551
经过	-4552
▁66	-4553
▁sched	-4554
的要求	-4555
▁advice	-4556
▁almost	-4557
▁confir	-4558
▁credit	-4559
▁mother	-4560
▁periodic	-4561
sy	-4562
▁56	-4563
▁likely	-4564
之外	-4565
▁54	-4566
报告中	-4567
至关	-4568
▁fle	-4569
▁adap	-4570
▁occur	-4571
此种	-4572
现代	-4573
会议室	-4574
▁trial	-4575
▁makes	-4576
▁resol	-4577
lusive	-4578
各级	-4579
将会	-4580
▁innov	-4581
▁consensus	-4582
▁introduction	-4583
意识	-4584
▁fel	-4585
后的	-4586
aties	-4587
▁addressing	-4588
▁mic	-4589
▁1992	-4590
全部	-4591
截至	-4592
▁52	-4593
▁relation	-4594
清单	-4595
▁priorities	-4596
▁主席	-4597
▁vir	-4598
▁courts	-4599
▁completed	-4600
当前	-4601
▁63	-4602
▁extent	-4603
评论	-4604
▁cn	-4605
▁san	-4606
▁went	-4607
最不发达国家	-4608
▁concept	-4609
▁western	-4610
▁reflect	-4611
国家和	-4612
的代表	-4613
首脑会议	-4614
▁senior	-4615
▁transmit	-4616
优先事项	-4617
▁util	-4618
与会	-4619
无论	-4620
科技	-4621
▁43	-4622
职责	-4623
虐待	-4624
索马里	-4625
外地	-4626
▁mom	-4627
▁green	-4628
中央	-4629
名单	-4630
▁treaties	-4631
▁这个	-4632
不同的	-4633
▁pred	-4634
▁units	-4635
小时	-4636
流动	-4637
开发署	-4638
ened	-4639
▁harmon	-4640
▁survey	-4641
acks	-4642
▁illeg	-4643
▁consultation	-4644
加勒	-4645
时期	-4646
更好	-4647
ibility	-4648
表决	-4649
▁2015	-4650
▁cand	-4651
▁debate	-4652
▁wal	-4653
▁korea	-4654
▁collaboration	-4655
平衡	-4656
▁insurance	-4657
▁applications	-4658
主权	-4659
icit	-4660
▁expenditure	-4661
试验	-4662
货物	-4663
▁47	-4664
▁hop	-4665
▁sixth	-4666
▁formal	-4667
▁consolid	-4668
也不	-4669
的时间	-4670
▁prosecut	-4671
yn	-4672
将继续	-4673
ulate	-4674
民主共和国	-4675
▁reached	-4676
90	-4677
▁ap	-4678
▁optional	-4679
处于	-4680
▁alia	-4681
▁welcomes	-4682
私营部门	-4683
▁gener	-4684
▁recovery	-4685
即使	-4686
视为	-4687
▁62	-4688
▁judge	-4689
巴西	-4690
维亚	-4691
lation	-4692
▁france	-4693
▁permit	-4694
▁plenary	-4695
▁discussed	-4696
找到	-4697
的项目	-4698
▁unep	-4699
▁specialized	-4700
▁art	-4701
▁mach	-4702
▁occupied	-4703
io	-4704
有一	-4705
bbe	-4706
▁tour	-4707
贷款	-4708
ancy	-4709
versity	-4710
原子	-4711
行为的	-4712
地注意到	-4713
汽车	-4714
▁drugs	-4715
就会	-4716
足够	-4717
意味着	-4718
istics	-4719
▁designed	-4720
欧盟	-4721
销售	-4722
▁et	-4723
▁somal	-4724
▁prices	-4725
离开	-4726
加勒比	-4727
▁unhcr	-4728
▁longer	-4729
▁migration	-4730
▁god	-4731
人士	-4732
▁conclusion	-4733
55	-4734
77	-4735
用户	-4736
▁economies	-4737
▁hab	-4738
▁recalling	-4739
▁continuing	-4740
五十	-4741
所涉	-4742
用的	-4743
满意	-4744
西哥	-4745
那里	-4746
▁decre	-4747
▁supporting	-4748
墨西哥	-4749
方案和	-4750
▁moreover	-4751
太平	-4752
▁bey	-4753
▁site	-4754
▁marri	-4755
▁friend	-4756
▁achieving	-4757
▁determination	-4758
的不	-4759
人力资源	-4760
▁bure	-4761
▁vulnerable	-4762
ously	-4763
对妇女	-4764
人口基金	-4765
▁atte	-4766
赞赏	-4767
▁female	-4768
▁religious	-4769
贸发会议	-4770
asion	-4771
总体	-4772
▁cari	-4773
▁adopt	-4774
▁大	-4775
有必要	-4776
▁beyond	-4777
清楚	-4778
的机会	-4779
▁book	-4780
▁challenge	-4781
▁afghanistan	-4782
▁hy	-4783
▁ku	-4784
实质性	-4785
2015	-4786
▁woman	-4787
人在	-4788
分子	-4789
adic	-4790
66	-4791
为此	-4792
ae	-4793
人权事务	-4794
▁waste	-4795
mor	-4796
▁fo	-4797
▁ans	-4798
武装冲突	-4799
▁terrorist	-4800
理论	-4801
太平洋	-4802
提交的	-4803
▁offer	-4804
▁history	-4805
▁settlement	-4806
旅游	-4807
▁depend	-4808
▁majority	-4809
▁conferences	-4810
▁不过	-4811
raft	-4812
▁67	-4813
个国家	-4814
▁stage	-4815
terprises	-4816
任择	-4817
的一项	-4818
ank	-4819
委员会在	-4820
以外	-4821
▁budgetary	-4822
项目的	-4823
▁clos	-4824
▁spir	-4825
sc	-4826
投票	-4827
▁invited	-4828
▁yes	-4829
▁qual	-4830
▁rapid	-4831
9/	-4832
一年	-4833
许可	-4834
ody	-4835
▁inh	-4836
▁implic	-4837
▁caribbe	-4838
enced	-4839
▁eigh	-4840
tivity	-4841
者和	-4842
▁rom	-4843
▁caribbean	-4844
研讨	-4845
规范	-4846
yl	-4847
父母	-4848
lier	-4849
▁leadership	-4850
▁appreciation	-4851
▁accountability	-4852
开放	-4853
sight	-4854
▁68	-4855
ania	-4856
▁soft	-4857
▁follows	-4858
▁violation	-4859
的各项	-4860
的安全	-4861
▁10.	-4862
▁criter	-4863
▁stop	-4864
▁journ	-4865
集中	-4866
▁temporary	-4867
▁independence	-4868
▁二	-4869
▁weapon	-4870
ilization	-4871
▁establishing	-4872
▁chec	-4873
立场	-4874
俄罗斯联邦	-4875
▁congo	-4876
停止	-4877
人权委员会	-4878
▁dang	-4879
▁arrest	-4880
▁friends	-4881
▁destruction	-4882
根本	-4883
▁目前	-4884
日星期	-4885
gine	-4886
▁explain	-4887
▁creation	-4888
▁remained	-4889
▁applicable	-4890
ee	-4891
分发	-4892
觉得	-4893
政府的	-4894
aces	-4895
任择议定书	-4896
筹资	-4897
▁mil	-4898
▁sanc	-4899
▁french	-4900
▁skills	-4901
男子	-4902
ime	-4903
的研究	-4904
44	-4905
少年	-4906
年轻	-4907
▁generally	-4908
工人	-4909
请秘书长	-4910
▁useful	-4911
▁finally	-4912
▁compared	-4913
生态	-4914
▁sure	-4915
▁announ	-4916
▁series	-4917
▁defence	-4918
▁initial	-4919
▁braz	-4920
▁obligation	-4921
侵害	-4922
压力	-4923
持久	-4924
▁corruption	-4925
cell	-4926
▁phil	-4927
▁constit	-4928
▁agriculture	-4929
官方	-4930
腐败	-4931
mis	-4932
▁51	-4933
▁simp	-4934
▁reasons	-4935
▁registration	-4936
▁cash	-4937
▁serve	-4938
▁这是	-4939
▁writ	-4940
缔约方会议	-4941
▁accep	-4942
▁phase	-4943
▁product	-4944
▁wit	-4945
▁11.	-4946
▁clearly	-4947
▁internet	-4948
tr	-4949
不到	-4950
威特	-4951
数额	-4952
erve	-4953
▁interpret	-4954
68	-4955
交通	-4956
制裁	-4957
排放	-4958
那个	-4959
科威特	-4960
这样的	-4961
▁plat	-4962
人权理事会	-4963
resp	-4964
ijing	-4965
2/	-4966
▁eradic	-4967
▁requires	-4968
▁conventions	-4969
土耳	-4970
与发展	-4971
▁judges	-4972
唯一	-4973
使其	-4974
土耳其	-4975
▁prosp	-4976
▁superv	-4977
▁setting	-4978
放在	-4979
研讨会	-4980
ront	-4981
小组委员会	-4982
isters	-4983
不过	-4984
救济	-4985
▁cat	-4986
▁manu	-4987
有的	-4988
行的	-4989
ished	-4990
巴基	-4991
电视	-4992
couraged	-4993
表达	-4994
ables	-4995
eless	-4996
▁latin	-4997
▁mexic	-4998
▁germany	-4999
▁measure	-5000
旺达	-5001
国际公约	-5002
erson	-5003
▁hear	-5004
▁corpor	-5005
▁covered	-5006
▁illicit	-5007
作了	-5008
地雷	-5009
▁positions	-5010
两性平等	-5011
▁competition	-5012
双边	-5013
卢旺达	-5014
巴基斯坦	-5015
▁brazil	-5016
▁beijing	-5017
▁created	-5018
▁concluded	-5019
今年	-5020
▁doing	-5021
lusions	-5022
▁racial	-5023
▁relief	-5024
standing	-5025
▁manufact	-5026
▁negative	-5027
▁最后	-5028
ening	-5029
itions	-5030
▁caused	-5031
众国	-5032
ict	-5033
try	-5034
工作队	-5035
主持	-5036
研究所	-5037
▁advoc	-5038
也许	-5039
▁jurisdiction	-5040
有一个	-5041
残疾人	-5042
▁miss	-5043
各自	-5044
埃及	-5045
dra	-5046
rents	-5047
岛屿	-5048
后果	-5049
预测	-5050
▁unid	-5051
一下	-5052
cs	-5053
指定	-5054
aly	-5055
wise	-5056
▁contact	-5057
▁bilateral	-5058
数目	-5059
▁12.	-5060
▁1991	-5061
▁acknow	-5062
▁detailed	-5063
经营	-5064
▁例如	-5065
在这方面	-5066
▁accounts	-5067
▁improvement	-5068
增进	-5069
相同	-5070
▁islamic	-5071
tise	-5072
和联合国	-5073
▁nothing	-5074
塞尔	-5075
攻击	-5076
▁raised	-5077
的结果	-5078
7/	-5079
let	-5080
克斯坦	-5081
▁candid	-5082
科索	-5083
ground	-5084
CN	-5085
▁grant	-5086
▁consum	-5087
▁conclusions	-5088
不应	-5089
北京	-5090
瑞士	-5091
信息和	-5092
assi	-5093
▁pain	-5094
和平与安全	-5095
▁confidence	-5096
攸关	-5097
▁learning	-5098
最佳	-5099
资本	-5100
和执行	-5101
后续行动	-5102
▁damage	-5103
▁highligh	-5104
58	-5105
ush	-5106
▁beginning	-5107
在于	-5108
科索沃	-5109
▁australia	-5110
替代	-5111
的合作	-5112
iplom	-5113
▁sovere	-5114
供资	-5115
ware	-5116
▁rehab	-5117
▁semin	-5118
大利	-5119
▁link	-5120
▁diplom	-5121
▁inde	-5122
▁reflected	-5123
▁suggested	-5124
▁partnerships	-5125
自治	-5126
▁expect	-5127
▁guarantee	-5128
拉丁	-5129
adem	-5130
ception	-5131
▁approval	-5132
▁trac	-5133
▁electronic	-5134
II	-5135
ple	-5136
的支持	-5137
ighb	-5138
▁sil	-5139
▁kuwa	-5140
▁sold	-5141
courages	-5142
▁operating	-5143
1/	-5144
日的	-5145
▁rehabilit	-5146
私人	-5147
权利和	-5148
▁remed	-5149
便利	-5150
特定	-5151
▁gas	-5152
arency	-5153
▁neighb	-5154
▁extreme	-5155
▁decade	-5156
▁achievement	-5157
▁46	-5158
▁lot	-5159
▁closed	-5160
▁transparency	-5161
结合	-5162
ense	-5163
▁44	-5164
年期间	-5165
▁spons	-5166
▁unfpa	-5167
▁focused	-5168
南部	-5169
进口	-5170
食物	-5171
另一个	-5172
特别是在	-5173
▁began	-5174
▁据	-5175
普通	-5176
海地	-5177
联络	-5178
区域和	-5179
实际上	-5180
的社会	-5181
tific	-5182
▁actors	-5183
rid	-5184
▁content	-5185
打算	-5186
脆弱	-5187
men	-5188
原子能	-5189
的政策	-5190
lling	-5191
▁hosp	-5192
▁birth	-5193
▁renew	-5194
▁sufficient	-5195
▁[	-5196
istered	-5197
terprise	-5198
意大利	-5199
tically	-5200
▁disapp	-5201
代理	-5202
母亲	-5203
1990	-5204
▁buy	-5205
类型	-5206
▁13.	-5207
▁pak	-5208
▁stra	-5209
▁payment	-5210
▁alternative	-5211
36	-5212
▁42	-5213
▁tru	-5214
▁poll	-5215
ulations	-5216
▁platform	-5217
▁presence	-5218
▁condition	-5219
切实	-5220
执法	-5221
述了	-5222
▁70	-5223
的措施	-5224
hood	-5225
▁deg	-5226
联合王国	-5227
▁alleged	-5228
▁instrument	-5229
▁nar	-5230
▁bureau	-5231
▁leading	-5232
▁original	-5233
▁oversight	-5234
治理	-5235
build	-5236
▁compar	-5237
▁records	-5238
▁consistent	-5239
技能	-5240
有效地	-5241
▁lives	-5242
▁seven	-5243
▁contrac	-5244
公务	-5245
▁如	-5246
石油	-5247
途径	-5248
▁assign	-5249
▁supplement	-5250
维也	-5251
特别代表	-5252
▁attach	-5253
未能	-5254
高度	-5255
▁farm	-5256
▁parents	-5257
大约	-5258
道路	-5259
▁dead	-5260
▁sharing	-5261
▁clean	-5262
是一	-5263
案文	-5264
维也纳	-5265
▁bad	-5266
37	-5267
刚果民主共和国	-5268
效果	-5269
▁heav	-5270
▁academ	-5271
创新	-5272
实验	-5273
状态	-5274
▁ng	-5275
利益攸关	-5276
▁frequ	-5277
▁computer	-5278
▁departments	-5279
以后	-5280
正常	-5281
简单	-5282
教育和	-5283
sych	-5284
▁win	-5285
▁mainly	-5286
▁illegal	-5287
在国家	-5288
▁blo	-5289
hanced	-5290
▁noting	-5291
▁duty	-5292
▁firm	-5293
▁emission	-5294
仲裁	-5295
态度	-5296
获取	-5297
账户	-5298
产生的	-5299
anch	-5300
▁regime	-5301
兴趣	-5302
十一	-5303
取得了	-5304
▁advant	-5305
▁resulting	-5306
助理	-5307
key	-5308
领导人	-5309
▁psych	-5310
▁tools	-5311
大规模	-5312
▁web	-5313
▁www	-5314
▁told	-5315
延长	-5316
ony	-5317
acts	-5318
▁marriage	-5319
▁pakistan	-5320
国籍	-5321
次级	-5322
和经济	-5323
▁cyc	-5324
inary	-5325
刑法	-5326
uri	-5327
▁pow	-5328
▁spirit	-5329
▁statistical	-5330
▁D	-5331
客户	-5332
废物	-5333
方向	-5334
▁tes	-5335
▁break	-5336
▁heard	-5337
▁exploitation	-5338
oke	-5339
检察官	-5340
的原则	-5341
这一点	-5342
公布	-5343
行政和	-5344
拉丁美洲	-5345
▁egyp	-5346
▁slow	-5347
▁described	-5348
▁collection	-5349
▁77	-5350
comm	-5351
▁obst	-5352
▁prom	-5353
▁fight	-5354
▁standing	-5355
发出	-5356
现实	-5357
▁oce	-5358
▁father	-5359
▁还	-5360
高兴	-5361
,""	-5362
为什么	-5363
临时议程	-5364
▁added	-5365
▁witness	-5366
▁written	-5367
袭击	-5368
▁launched	-5369
▁observations	-5370
外部	-5371
方针	-5372
本组织	-5373
enna	-5374
rete	-5375
▁bul	-5376
ental	-5377
▁workshop	-5378
▁efficient	-5379
▁consequences	-5380
判决	-5381
▁14.	-5382
▁repe	-5383
hancing	-5384
严格	-5385
▁opening	-5386
▁electric	-5387
看法	-5388
▁je	-5389
协调员	-5390
rence	-5391
审计委员会	-5392
▁banks	-5393
▁medium	-5394
▁command	-5395
发布	-5396
它的	-5397
罗马	-5398
起草	-5399
参加了	-5400
▁ang	-5401
与联合国	-5402
▁solid	-5403
▁settle	-5404
▁minimum	-5405
▁relative	-5406
put	-5407
▁"(	-5408
形式的	-5409
▁pack	-5410
stream	-5411
▁displaced	-5412
现金	-5413
▁delay	-5414
通报	-5415
与会者	-5416
及其他	-5417
inking	-5418
▁quick	-5419
▁thing	-5420
▁accounting	-5421
将于	-5422
▁arri	-5423
工资	-5424
法治	-5425
达尔	-5426
▁41	-5427
审议了	-5428
▁maxim	-5429
▁recruit	-5430
▁difficulties	-5431
对此	-5432
功能	-5433
启动	-5434
▁lebanon	-5435
,“	-5436
出来	-5437
资格	-5438
数据库	-5439
▁hol	-5440
▁fuel	-5441
▁urges	-5442
各地	-5443
正如	-5444
▁现在	-5445
的行动	-5446
▁risks	-5447
1)	-5448
卫星	-5449
软件	-5450
ica	-5451
▁ago	-5452
▁attend	-5453
38	-5454
初步	-5455
商定	-5456
补救	-5457
变得	-5458
而是	-5459
▁mess	-5460
▁vill	-5461
▁northern	-5462
为止	-5463
ert	-5464
▁rw	-5465
▁timely	-5466
▁closely	-5467
▁welcome	-5468
▁strengthened	-5469
在该	-5470
nes	-5471
umb	-5472
▁80	-5473
▁pi	-5474
tity	-5475
的执行情况	-5476
▁organizational	-5477
权的	-5478
人权和	-5479
技术援助	-5480
安全理事会第	-5481
▁safegu	-5482
▁incorpor	-5483
完整	-5484
食品	-5485
▁types	-5486
信托	-5487
年以来	-5488
▁owing	-5489
协作	-5490
▁micro	-5491
ination	-5492
▁criteria	-5493
▁就	-5494
中东	-5495
享受	-5496
跨国	-5497
alities	-5498
工发	-5499
重建	-5500
人员的	-5501
▁creat	-5502
▁works	-5503
▁dollars	-5504
中所	-5505
航空	-5506
▁swit	-5507
加拉	-5508
提请	-5509
正确	-5510
▁cuba	-5511
▁stri	-5512
▁mexico	-5513
▁geograph	-5514
不再	-5515
多的	-5516
返回	-5517
ixed	-5518
▁lic	-5519
▁vienna	-5520
剥夺	-5521
当事	-5522
▁sanctions	-5523
▁regulation	-5524
▁syrian	-5525
▁approaches	-5526
▁colle	-5527
▁habit	-5528
▁constitutional	-5529
候选	-5530
居住	-5531
▁involving	-5532
群岛	-5533
▁lay	-5534
▁shown	-5535
▁raising	-5536
▁published	-5537
▁true	-5538
▁democracy	-5539
39	-5540
应在	-5541
期限	-5542
的各种	-5543
的政治	-5544
▁datab	-5545
▁absence	-5546
南非	-5547
失业	-5548
转移	-5549
▁draw	-5550
每天	-5551
马拉	-5552
▁vice	-5553
▁reproduc	-5554
▁determined	-5555
投入	-5556
更为	-5557
ape	-5558
craft	-5559
良好	-5560
▁reduced	-5561
▁withdra	-5562
▁subregional	-5563
▁implications	-5564
尼日	-5565
并没有	-5566
▁recognition	-5567
▁uk	-5568
face	-5569
▁arch	-5570
ousand	-5571
teenth	-5572
▁collective	-5573
▁definition	-5574
付款	-5575
▁webs	-5576
▁mutual	-5577
安保	-5578
营养	-5579
遗憾	-5580
集体	-5581
oon	-5582
▁quar	-5583
▁town	-5584
▁attack	-5585
▁comment	-5586
▁eastern	-5587
▁islands	-5588
▁thousand	-5589
十二	-5590
很大	-5591
查明	-5592
▁conflicts	-5593
▁foundation	-5594
▁preparatory	-5595
不利	-5596
指南	-5597
最大	-5598
▁wid	-5599
▁detain	-5600
▁documentation	-5601
提及	-5602
▁saw	-5603
▁shared	-5604
▁cell	-5605
▁page	-5606
▁reducing	-5607
▁civilians	-5608
▁sensi	-5609
▁decides	-5610
▁punishment	-5611
旅行	-5612
以英语	-5613
oring	-5614
▁capacities	-5615
艺术	-5616
CO	-5617
包含	-5618
▁der	-5619
▁nin	-5620
▁news	-5621
▁donors	-5622
▁concrete	-5623
▁rehabilitation	-5624
是一种	-5625
使得	-5626
采取措施	-5627
▁asian	-5628
▁histor	-5629
▁elected	-5630
6/	-5631
▁而	-5632
行业	-5633
身体	-5634
rep	-5635
的地方	-5636
▁mer	-5637
▁construc	-5638
殖民	-5639
随后	-5640
▁purch	-5641
▁planned	-5642
的说明	-5643
▁forth	-5644
▁moment	-5645
▁search	-5646
hol	-5647
和管理	-5648
在联合国	-5649
▁subpro	-5650
▁pressure	-5651
▁languages	-5652
额外	-5653
方案预算	-5654
组成部分	-5655
▁三	-5656
医生	-5657
科特	-5658
imen	-5659
ival	-5660
▁unido	-5661
▁southern	-5662
CC	-5663
语文	-5664
遭到	-5665
酌情	-5666
gage	-5667
▁observer	-5668
▁component	-5669
利坚	-5670
最低	-5671
部门的	-5672
iger	-5673
▁wan	-5674
特别委员会	-5675
illing	-5676
核查	-5677
裁决	-5678
尼西亚	-5679
▁mine	-5680
▁prem	-5681
▁actual	-5682
building	-5683
总是	-5684
监察	-5685
ead	-5686
pet	-5687
,000	-5688
▁electoral	-5689
▁deployment	-5690
上文	-5691
▁ship	-5692
▁aircraft	-5693
动物	-5694
更好地	-5695
美利坚	-5696
▁causes	-5697
▁seventh	-5698
购买	-5699
逮捕	-5700
建立一个	-5701
▁immediately	-5702
种族歧视	-5703
▁sense	-5704
▁actively	-5705
▁ministers	-5706
报道	-5707
更新	-5708
难以	-5709
▁committees	-5710
内亚	-5711
几内亚	-5712
▁gave	-5713
▁urgent	-5714
▁membership	-5715
特点	-5716
管理和	-5717
1992	-5718
▁sun	-5719
以英语发言	-5720
▁bound	-5721
▁failure	-5722
75	-5723
测试	-5724
ham	-5725
▁heads	-5726
▁subprogram	-5727
边界	-5728
大家	-5729
错误	-5730
uck	-5731
的意见	-5732
▁word	-5733
模型	-5734
采取了	-5735
美利坚合	-5736
▁watch	-5737
▁indeed	-5738
▁approxim	-5739
▁prosecutor	-5740
▁adapt	-5741
▁radio	-5742
哪些	-5743
ife	-5744
▁prepare	-5745
伤害	-5746
mer	-5747
国际合作	-5748
gment	-5749
▁merc	-5750
▁defined	-5751
34	-5752
参考	-5753
坚持	-5754
包括在	-5755
▁wall	-5756
▁guide	-5757
载于	-5758
里的	-5759
的基础上	-5760
▁meaning	-5761
▁somalia	-5762
信任	-5763
▁对于	-5764
一般性	-5765
▁15.	-5766
▁late	-5767
▁followed	-5768
,"	-5769
依赖	-5770
维和	-5771
▁16.	-5772
active	-5773
日和	-5774
共同体	-5775
▁thank	-5776
ua	-5777
书面	-5778
订正	-5779
化学品	-5780
▁household	-5781
▁rise	-5782
拉夫	-5783
▁美国	-5784
▁mort	-5785
▁charge	-5786
▁coming	-5787
▁determine	-5788
69	-5789
中期	-5790
利比	-5791
用途	-5792
ece	-5793
▁degra	-5794
▁owners	-5795
是个	-5796
ses	-5797
事实上	-5798
▁excell	-5799
cer	-5800
▁intended	-5801
争取	-5802
百分	-5803
lav	-5804
以及在	-5805
医院	-5806
实践	-5807
▁第三	-5808
机构间	-5809
▁dig	-5810
▁hor	-5811
▁stay	-5812
不受	-5813
学院	-5814
展开	-5815
▁answ	-5816
▁looking	-5817
▁possibility	-5818
值得	-5819
政府和	-5820
fully	-5821
▁highest	-5822
▁increasingly	-5823
大使	-5824
den	-5825
资源的	-5826
利比里亚	-5827
▁mainstream	-5828
子女	-5829
教师	-5830
都有	-5831
举行了	-5832
至关重要	-5833
ented	-5834
lined	-5835
安全和	-5836
分类	-5837
只要	-5838
指示	-5839
试图	-5840
军队	-5841
朝鲜	-5842
ots	-5843
所有的	-5844
▁pati	-5845
▁stressed	-5846
分享	-5847
报表	-5848
赞扬	-5849
可能性	-5850
▁haiti	-5851
▁journal	-5852
▁involvement	-5853
团结	-5854
公司的	-5855
▁idea	-5856
▁branch	-5857
▁religion	-5858
▁minorities	-5859
约束	-5860
300	-5861
lled	-5862
▁smo	-5863
▁syn	-5864
依然	-5865
是不	-5866
这么	-5867
问责	-5868
▁gaz	-5869
▁hoc	-5870
▁rich	-5871
”。	-5872
差异	-5873
混合	-5874
ocks	-5875
▁estimates	-5876
▁processing	-5877
哥伦	-5878
法规	-5879
颁布	-5880
idents	-5881
▁acting	-5882
▁perpet	-5883
干预	-5884
▁fulfil	-5885
爆炸	-5886
道德	-5887
▁complement	-5888
技术和	-5889
刑事司法	-5890
▁white	-5891
▁consumption	-5892
处罚	-5893
常设	-5894
▁69	-5895
号文件	-5896
的儿童	-5897
▁lost	-5898
64	-5899
全世界	-5900
▁zone	-5901
▁speed	-5902
▁usually	-5903
▁assessments	-5904
一位	-5905
这个问题	-5906
atell	-5907
▁commod	-5908
32	-5909
▁一个	-5910
使用的	-5911
第一次	-5912
arity	-5913
▁emerging	-5914
▁contributing	-5915
富尔	-5916
迪瓦	-5917
增加了	-5918
经济和社会	-5919
▁shows	-5920
▁accepted	-5921
强迫	-5922
快速	-5923
▁ambass	-5924
▁factor	-5925
▁background	-5926
科特迪瓦	-5927
lying	-5928
▁observers	-5929
用来	-5930
gen	-5931
妇女地位	-5932
摘要	-5933
显然	-5934
nia	-5935
ugg	-5936
▁calc	-5937
cl	-5938
感染	-5939
津贴	-5940
imb	-5941
的原因	-5942
的资源	-5943
gans	-5944
▁size	-5945
原子能机构	-5946
▁evalu	-5947
▁forced	-5948
▁earlier	-5949
面对	-5950
▁pattern	-5951
▁workshops	-5952
▁国家	-5953
▁nine	-5954
▁outer	-5955
▁keeping	-5956
▁morning	-5957
受益	-5958
婚姻	-5959
并非	-5960
与其他	-5961
61	-5962
▁自	-5963
ilt	-5964
信托基金	-5965
哥伦比亚	-5966
▁guine	-5967
▁empower	-5968
▁instead	-5969
体育	-5970
失踪	-5971
所列	-5972
现行	-5973
事务部	-5974
或其他	-5975
▁rej	-5976
versi	-5977
▁uses	-5978
美利坚合众国	-5979
▁refugee	-5980
情报	-5981
进步	-5982
theless	-5983
▁solutions	-5984
上升	-5985
地球	-5986
的基本	-5987
建设和平	-5988
▁autom	-5989
▁placed	-5990
▁reviewed	-5991
▁accordingly	-5992
▁raise	-5993
操作	-5994
爱尔	-5995
透明度	-5996
▁bos	-5997
▁figure	-5998
▁options	-5999
发生的	-6000
▁learn	-6001
▁niger	-6002
▁expertise	-6003
对该	-6004
担保	-6005
执行局	-6006
的承诺	-6007
达尔富尔	-6008
lands	-6009
▁议程项目	-6010
▁immediate	-6011
,”	-6012
养恤	-6013
强制	-6014
wide	-6015
利益攸关方	-6016
▁marine	-6017
▁nation	-6018
▁category	-6019
▁percentage	-6020
车辆	-6021
和建议	-6022
▁clari	-6023
▁chairp	-6024
▁congress	-6025
下来	-6026
他说	-6027
塞拉	-6028
爱尔兰	-6029
规划署	-6030
▁recruitment	-6031
雇员	-6032
▁eyes	-6033
▁expression	-6034
▁approximately	-6035
免费	-6036
后勤	-6037
相比	-6038
附属	-6039
▁其他	-6040
▁政府	-6041
广泛的	-6042
▁fields	-6043
▁inspection	-6044
类别	-6045
umed	-6046
usal	-6047
▁chamber	-6048
载有	-6049
dem	-6050
大部分	-6051
▁pic	-6052
▁mount	-6053
59	-6054
克兰	-6055
决心	-6056
根廷	-6057
eme	-6058
阿根廷	-6059
难民署	-6060
▁satell	-6061
▁unless	-6062
习惯	-6063
速度	-6064
次区域	-6065
▁ngos	-6066
▁organs	-6067
▁separate	-6068
▁specifically	-6069
总额	-6070
ley	-6071
吸引	-6072
种族主义	-6073
▁attacks	-6074
▁element	-6075
▁transform	-6076
特设	-6077
▁suc	-6078
enses	-6079
▁produced	-6080
▁representation	-6081
取消	-6082
相应	-6083
赋予	-6084
主席团	-6085
▁son	-6086
▁egypt	-6087
respond	-6088
着重	-6089
被告	-6090
事规则	-6091
的数据	-6092
▁valid	-6093
▁extended	-6094
▁contracts	-6095
容忍	-6096
父亲	-6097
的做法	-6098
▁agg	-6099
▁kuwait	-6100
▁saving	-6101
▁deliver	-6102
可靠	-6103
的小	-6104
times	-6105
▁cooper	-6106
▁subcomm	-6107
共识	-6108
在此	-6109
rew	-6110
为基础	-6111
▁correspond	-6112
成年	-6113
aily	-6114
委员会建议	-6115
▁eight	-6116
▁ninth	-6117
面前	-6118
和犯罪	-6119
▁flex	-6120
▁weak	-6121
▁behav	-6122
▁cooperate	-6123
▁其	-6124
证书	-6125
....	-6126
oslav	-6127
▁doub	-6128
▁holding	-6129
同一	-6130
并将	-6131
挪威	-6132
解决办法	-6133
abled	-6134
▁examination	-6135
法案	-6136
燃料	-6137
▁secondary	-6138
▁将	-6139
主流	-6140
我想	-6141
有利于	-6142
届会议上	-6143
秘书长关于	-6144
asters	-6145
▁eighth	-6146
技术合作	-6147
unicip	-6148
▁places	-6149
▁undertake	-6150
▁represented	-6151
▁investigations	-6152
78	-6153
eg	-6154
成就	-6155
比赛	-6156
阻碍	-6157
chr	-6158
的环境	-6159
▁unemp	-6160
pt	-6161
惩罚	-6162
负担	-6163
dors	-6164
▁18.	-6165
的工作人员	-6166
▁values	-6167
▁municip	-6168
▁reconcil	-6169
这样做	-6170
▁subs	-6171
▁urged	-6172
▁learned	-6173
以期	-6174
只能	-6175
层面	-6176
日期间	-6177
▁dyn	-6178
国际组织	-6179
▁techni	-6180
女童	-6181
jan	-6182
ugoslav	-6183
和解	-6184
在一起	-6185
印度尼西亚	-6186
特征	-6187
次级方案	-6188
▁gran	-6189
▁stre	-6190
荷兰	-6191
常驻联合国	-6192
▁hands	-6193
▁scheme	-6194
ervation	-6195
和区域	-6196
▁cruc	-6197
▁depos	-6198
▁guinea	-6199
▁yugoslav	-6200
所有国家	-6201
发展中国家的	-6202
潜在	-6203
的一种	-6204
▁daily	-6205
▁conting	-6206
▁prosecution	-6207
vi	-6208
计算机	-6209
▁deliber	-6210
▁direction	-6211
监管	-6212
▁90	-6213
▁ask	-6214
▁num	-6215
工发组织	-6216
gaged	-6217
iring	-6218
mples	-6219
▁army	-6220
▁selec	-6221
▁turkey	-6222
(2	-6223
化和	-6224
感觉	-6225
400	-6226
斯拉夫	-6227
面临的	-6228
▁donor	-6229
▁occupation	-6230
▁coordinated	-6231
▁recognizing	-6232
▁ul	-6233
▁joh	-6234
▁easy	-6235
联合国宪章	-6236
▁ministerial	-6237
▁participated	-6238
▁ali	-6239
▁prime	-6240
▁legiti	-6241
▁considering	-6242
回答	-6243
思想	-6244
band	-6245
▁behind	-6246
▁remaining	-6247
▁proportion	-6248
▁表	-6249
基地	-6250
筹措	-6251
▁surv	-6252
▁aware	-6253
▁combating	-6254
教学	-6255
的责任	-6256
全体会议	-6257
▁compr	-6258
▁labor	-6259
▁threats	-6260
▁freedoms	-6261
▁acknowled	-6262
▁appointment	-6263
多少	-6264
▁ky	-6265
▁另外	-6266
公务员	-6267
▁gold	-6268
▁etc	-6269
fered	-6270
▁ready	-6271
▁highly	-6272
▁replace	-6273
▁settlements	-6274
减轻	-6275
差距	-6276
志愿	-6277
▁won	-6278
▁software	-6279
enders	-6280
▁conver	-6281
▁produce	-6282
▁sometimes	-6283
8/	-6284
的具体	-6285
▁elab	-6286
▁prob	-6287
▁became	-6288
itig	-6289
▁17.	-6290
▁bat	-6291
▁dealing	-6292
53	-6293
生殖	-6294
▁forty	-6295
▁disease	-6296
▁website	-6297
▁networks	-6298
▁offences	-6299
▁influence	-6300
41	-6301
ns	-6302
第六	-6303
发展和	-6304
ived	-6305
▁alone	-6306
▁sales	-6307
帝汶	-6308
证实	-6309
tes	-6310
51	-6311
开支	-6312
经历	-6313
保护和	-6314
head	-6315
▁quite	-6316
▁train	-6317
▁started	-6318
会上	-6319
是因为	-6320
非洲联盟	-6321
▁indones	-6322
aj	-6323
▁E	-6324
位置	-6325
确实	-6326
600	-6327
▁chan	-6328
▁users	-6329
▁weeks	-6330
▁looked	-6331
ao	-6332
在本	-6333
每一	-6334
南斯拉夫	-6335
▁else	-6336
▁cities	-6337
▁mandates	-6338
▁inclusion	-6339
法令	-6340
▁speaking	-6341
eng	-6342
取得的进展	-6343
▁award	-6344
▁creating	-6345
有时	-6346
纪念	-6347
尽可能	-6348
▁interim	-6349
▁targets	-6350
▁ambassador	-6351
得以	-6352
自动	-6353
的执行	-6354
▁hus	-6355
▁mac	-6356
onses	-6357
▁mail	-6358
▁quan	-6359
适合	-6360
除非	-6361
▁uns	-6362
世界银行	-6363
▁appointed	-6364
迄今	-6365
的一切	-6366
iers	-6367
▁haz	-6368
▁allowed	-6369
ovo	-6370
ames	-6371
utri	-6372
▁.10	-6373
▁anim	-6374
▁optim	-6375
▁imposed	-6376
事情	-6377
合并	-6378
▁dimen	-6379
▁details	-6380
▁everyone	-6381
调动	-6382
多样性	-6383
▁offered	-6384
因而	-6385
弹药	-6386
当时	-6387
是对	-6388
防治	-6389
teg	-6390
的有关	-6391
▁ded	-6392
osure	-6393
▁argent	-6394
▁integrity	-6395
5/	-6396
平台	-6397
相对	-6398
▁grad	-6399
▁reven	-6400
▁indicate	-6401
十五	-6402
▁同时	-6403
号决议第	-6404
▁cong	-6405
▁powers	-6406
▁trends	-6407
制止	-6408
犯罪和	-6409
▁kos	-6410
工作方案	-6411
性别平等	-6412
▁street	-6413
▁emphasis	-6414
▁responses	-6415
▁identification	-6416
之中	-6417
彻底	-6418
推进	-6419
赞同	-6420
也没有	-6421
▁didn	-6422
▁crucial	-6423
▁participating	-6424
57	-6425
争端	-6426
交换	-6427
他在	-6428
会的	-6429
灵活	-6430
▁bang	-6431
▁fear	-6432
▁lawy	-6433
毒品和犯罪	-6434
tially	-6435
▁check	-6436
▁persp	-6437
▁rwanda	-6438
▁station	-6439
▁recorded	-6440
▁interested	-6441
▁territorial	-6442
▁interpretation	-6443
剥削	-6444
波斯	-6445
▁unm	-6446
▁whom	-6447
▁himself	-6448
?"	-6449
瑞典	-6450
oth	-6451
▁acce	-6452
▁wrong	-6453
actions	-6454
▁occasion	-6455
老年	-6456
▁ohchr	-6457
▁constra	-6458
▁eliminate	-6459
▁目的	-6460
▁girl	-6461
人民共和国	-6462
▁observed	-6463
一体	-6464
业绩	-6465
葡萄	-6466
角度	-6467
pped	-6468
文化权利	-6469
tified	-6470
▁domin	-6471
▁otherwise	-6472
▁palestine	-6473
▁outstanding	-6474
吁请	-6475
unte	-6476
▁felt	-6477
▁lord	-6478
▁medic	-6479
▁components	-6480
监测和	-6481
▁accomplish	-6482
▁subprogramme	-6483
▁significantly	-6484
▁新	-6485
也有	-6486
▁hund	-6487
▁district	-6488
▁vehicles	-6489
▁perspective	-6490
第七	-6491
ark	-6492
▁ze	-6493
框架内	-6494
▁reme	-6495
ta	-6496
利昂	-6497
所在	-6498
毫无	-6499
暴力行为	-6500
anish	-6501
▁severe	-6502
▁concent	-6503
▁hundred	-6504
▁一些	-6505
建立了	-6506
rated	-6507
▁customs	-6508
▁respectively	-6509
出生	-6510
生育	-6511
loyed	-6512
》、	-6513
派遣	-6514
认可	-6515
得到了	-6516
特别会议	-6517
▁path	-6518
▁actually	-6519
▁resulted	-6520
▁chemicals	-6521
逐步	-6522
东帝汶	-6523
▁ire	-6524
▁wash	-6525
▁black	-6526
▁gross	-6527
▁liter	-6528
▁peacebuilding	-6529
担心	-6530
诸如	-6531
ify	-6532
出版物	-6533
aria	-6534
▁19.	-6535
▁缔约国	-6536
▁seas	-6537
▁requirement	-6538
任期	-6539
紧张	-6540
arily	-6541
where	-6542
例子	-6543
日起	-6544
bon	-6545
▁20.	-6546
毒品和犯罪问题	-6547
▁emissions	-6548
▁presentation	-6549
人都	-6550
的妇女	-6551
▁nep	-6552
▁pil	-6553
▁tourism	-6554
▁preventing	-6555
有组织	-6556
侵犯人权	-6557
▁pension	-6558
尼日利亚	-6559
▁colom	-6560
▁failed	-6561
oto	-6562
的一般	-6563
塞拉利昂	-6564
▁stor	-6565
atures	-6566
▁plant	-6567
▁degree	-6568
▁ireland	-6569
▁assistant	-6570
危害	-6571
董事	-6572
▁gh	-6573
和安全	-6574
puts	-6575
发展援助	-6576
▁bene	-6577
▁wife	-6578
消除对妇女	-6579
▁constitute	-6580
▁restrictions	-6581
肯定	-6582
▁21.	-6583
▁teams	-6584
▁attrib	-6585
▁install	-6586
▁findings	-6587
▁categories	-6588
▁emphasized	-6589
▁contributed	-6590
细胞	-6591
隆迪	-6592
gov	-6593
▁作为	-6594
quid	-6595
rable	-6596
▁poss	-6597
▁volunte	-6598
▁diversity	-6599
发了	-6600
就此	-6601
▁migrants	-6602
▁consultative	-6603
埃塞	-6604
融资	-6605
这次	-6606
事务厅	-6607
▁sell	-6608
▁floor	-6609
▁diseases	-6610
▁authorized	-6611
▁structures	-6612
西非	-6613
ula	-6614
unity	-6615
▁委员会还	-6616
欧元	-6617
▁.0	-6618
人员和	-6619
▁blood	-6620
▁front	-6621
▁mitig	-6622
▁visits	-6623
▁habitat	-6624
声称	-6625
自身	-6626
在国际	-6627
工程处	-6628
影响的	-6629
▁feed	-6630
▁verification	-6631
▁internationally	-6632
储存	-6633
▁00	-6634
俄比亚	-6635
布隆迪	-6636
的生活	-6637
oted	-6638
▁cro	-6639
的联合国	-6640
埃塞俄比亚	-6641
▁victim	-6642
▁lessons	-6643
42	-6644
亚太	-6645
推广	-6646
▁che	-6647
▁kosovo	-6648
▁release	-6649
一点	-6650
计划的	-6651
ares	-6652
▁sle	-6653
这一问题	-6654
▁belong	-6655
▁database	-6656
▁allegations	-6657
▁highlighted	-6658
▁reconciliation	-6659
议题	-6660
▁foot	-6661
巨大	-6662
▁biological	-6663
阁下	-6664
cast	-6665
▁demo	-6666
▁margin	-6667
▁spread	-6668
▁thirty	-6669
▁employees	-6670
单独	-6671
强烈	-6672
怎样	-6673
高专	-6674
ques	-6675
暴力侵害	-6676
人道主义法	-6677
▁super	-6678
▁anything	-6679
死刑	-6680
环境署	-6681
▁slo	-6682
▁socio	-6683
▁courses	-6684
▁ratification	-6685
年代	-6686
庇护	-6687
电影	-6688
iop	-6689
▁jer	-6690
▁fost	-6691
▁giving	-6692
▁amendment	-6693
命令	-6694
并为	-6695
拟定	-6696
效力	-6697
▁simple	-6698
整体	-6699
是由	-6700
aging	-6701
▁exceed	-6702
▁completion	-6703
去年	-6704
取决	-6705
摩洛	-6706
▁tun	-6707
▁align	-6708
准确	-6709
西兰	-6710
遇到	-6711
飞行	-6712
▁wed	-6713
▁listed	-6714
▁losses	-6715
▁conform	-6716
▁everything	-6717
信仰	-6718
即将	-6719
取决于	-6720
titude	-6721
minated	-6722
▁应	-6723
场所	-6724
我要	-6725
电脑	-6726
联网	-6727
▁,8	-6728
▁tasks	-6729
▁except	-6730
▁outcomes	-6731
段中	-6732
ont	-6733
世界上	-6734
高专办	-6735
▁ball	-6736
▁persist	-6737
▁obtained	-6738
;(	-6739
曾经	-6740
▁secure	-6741
▁century	-6742
▁subsidiary	-6743
▁chairperson	-6744
教训	-6745
▁immig	-6746
委员会的报告	-6747
▁reforms	-6748
▁existence	-6749
促请	-6750
反恐	-6751
和不	-6752
和非	-6753
学家	-6754
深入	-6755
ume	-6756
家庭暴力	-6757
▁eradication	-6758
了对	-6759
事业	-6760
时代	-6761
药品	-6762
▁为此	-6763
的文件	-6764
▁welf	-6765
▁corre	-6766
▁advantage	-6767
▁subsequent	-6768
rs	-6769
月在	-6770
▁italy	-6771
▁namely	-6772
▁grounds	-6773
▁registered	-6774
▁considerable	-6775
部的	-6776
▁lu	-6777
委员会主席	-6778
▁classi	-6779
▁welfare	-6780
▁coordinator	-6781
AC	-6782
战斗	-6783
让我	-6784
不知道	-6785
erra	-6786
▁shel	-6787
▁cycle	-6788
▁overc	-6789
ressive	-6790
▁opened	-6791
▁reflec	-6792
▁worked	-6793
▁advanced	-6794
▁teaching	-6795
la	-6796
并对	-6797
load	-6798
▁candidates	-6799
▁experiences	-6800
以往	-6801
涵盖	-6802
高的	-6803
akh	-6804
可以在	-6805
和国家	-6806
的方案	-6807
第二次	-6808
▁amendments	-6809
效益	-6810
示范	-6811
乌克兰	-6812
▁jobs	-6813
▁seems	-6814
▁schedul	-6815
▁populations	-6816
gs	-6817
之下	-6818
受理	-6819
实地	-6820
的前	-6821
▁expan	-6822
▁pregn	-6823
妨碍	-6824
常常	-6825
路斯	-6826
摩洛哥	-6827
▁bed	-6828
▁spoke	-6829
▁deputy	-6830
▁facing	-6831
塞浦	-6832
男性	-6833
量的	-6834
塞浦路斯	-6835
▁curren	-6836
set	-6837
波斯尼亚	-6838
▁reinteg	-6839
▁seeking	-6840
▁thematic	-6841
62	-6842
成绩	-6843
注册	-6844
滥用	-6845
情况的	-6846
▁bol	-6847
▁comes	-6848
地理	-6849
永远	-6850
rate	-6851
▁liberia	-6852
▁minority	-6853
po	-6854
▁_	-6855
希腊	-6856
英文	-6857
所作的	-6858
权利的	-6859
该区域	-6860
所述期间	-6861
▁wood	-6862
▁obstac	-6863
▁trying	-6864
中有	-6865
寻找	-6866
通讯	-6867
▁squ	-6868
national	-6869
▁willing	-6870
▁execution	-6871
并向	-6872
敏感	-6873
这里	-6874
严重的	-6875
估计数	-6876
小岛屿	-6877
rain	-6878
etary	-6879
▁norm	-6880
▁extend	-6881
▁normal	-6882
▁contains	-6883
▁strongly	-6884
直到	-6885
驱逐	-6886
▁ug	-6887
tify	-6888
▁tou	-6889
无核武器	-6890
iling	-6891
▁faced	-6892
▁ethiop	-6893
人权事务高级专员	-6894
▁recognize	-6895
▁可	-6896
儿子	-6897
小型	-6898
装置	-6899
它们的	-6900
武器和	-6901
iles	-6902
▁roc	-6903
▁owned	-6904
▁withdraw	-6905
▁considers	-6906
▁boy	-6907
议事规则	-6908
问题国际	-6909
▁strict	-6910
▁competent	-6911
四个	-6912
多个	-6913
候选人	-6914
讨论了	-6915
▁mad	-6916
▁sites	-6917
zerland	-6918
▁reconst	-6919
对象	-6920
aea	-6921
ids	-6922
的费用	-6923
通信技术	-6924
▁cold	-6925
▁door	-6926
▁none	-6927
▁sale	-6928
▁honour	-6929
▁selected	-6930
▁disability	-6931
▁reproductive	-6932
包容	-6933
总理	-6934
长的	-6935
作出了	-6936
流离失所者	-6937
▁norms	-6938
▁nearly	-6939
▁widely	-6940
▁protected	-6941
消息	-6942
装备	-6943
oles	-6944
▁dur	-6945
▁heavy	-6946
▁supplies	-6947
▁inclusive	-6948
ob	-6949
rc	-6950
的义务	-6951
52	-6952
区的	-6953
意思	-6954
修正案	-6955
最大的	-6956
▁talk	-6957
▁moroc	-6958
▁master	-6959
▁racism	-6960
▁switzerland	-6961
图书	-6962
大楼	-6963
音乐	-6964
road	-6965
▁iaea	-6966
▁theory	-6967
▁regulatory	-6968
-3	-6969
▁S	-6970
uan	-6971
不可能	-6972
▁22.	-6973
▁granted	-6974
▁certific	-6975
▁disasters	-6976
▁spain	-6977
▁writing	-6978
▁nationality	-6979
国防	-6980
定于	-6981
观念	-6982
程度上	-6983
讨论会	-6984
▁migrant	-6985
▁payments	-6986
▁extensive	-6987
54	-6988
RC	-6989
▁&	-6990
▁要	-6991
教科	-6992
谴责	-6993
▁,9	-6994
▁vital	-6995
▁consent	-6996
年底	-6997
物品	-6998
荒漠	-6999
▁coast	-7000
▁funded	-7001
▁invent	-7002
变成	-7003
大幅	-7004
审理	-7005
ray	-7006
▁所有	-7007
▁sho	-7008
八届会议	-7009
▁sierra	-7010
十三	-7011
巩固	-7012
极端	-7013
...	-7014
▁本文	-7015
国集团	-7016
妇女在	-7017
▁24.	-7018
▁dissemination	-7019
▁swed	-7020
▁bosnia	-7021
▁diplomatic	-7022
▁expenditures	-7023
位于	-7024
显著	-7025
细则	-7026
高等	-7027
▁bit	-7028
▁mas	-7029
▁coverage	-7030
▁globalization	-7031
▁此	-7032
面的	-7033
nty	-7034
wan	-7035
的需要	-7036
▁brit	-7037
▁dream	-7038
▁dynam	-7039
▁linked	-7040
▁supreme	-7041
▁indonesia	-7042
周期	-7043
给我	-7044
翻译	-7045
自我	-7046
▁鉴于	-7047
的关键	-7048
tish	-7049
▁23.	-7050
▁duties	-7051
▁matern	-7052
▁autonom	-7053
▁benefic	-7054
附近	-7055
青少年	-7056
国际人权	-7057
ignty	-7058
vision	-7059
▁paras	-7060
▁quarter	-7061
▁statute	-7062
▁trading	-7063
▁intellig	-7064
▁concluding	-7065
▁sovereignty	-7066
常规	-7067
斯洛	-7068
释放	-7069
osing	-7070
▁decide	-7071
▁appeals	-7072
指数	-7073
未经	-7074
融入	-7075
ara	-7076
带来的	-7077
fect	-7078
▁worth	-7079
▁burund	-7080
▁expansion	-7081
▁designated	-7082
共计	-7083
加沙	-7084
回应	-7085
指挥	-7086
▁bor	-7087
▁leone	-7088
▁expenses	-7089
▁teachers	-7090
▁sustained	-7091
▁technological	-7092
失去	-7093
很快	-7094
对这些	-7095
阿尔及	-7096
▁warm	-7097
▁norway	-7098
▁appreci	-7099
▁speakers	-7100
▁complaints	-7101
某种	-7102
▁fer	-7103
少数群体	-7104
联合国的	-7105
aland	-7106
▁aims	-7107
▁card	-7108
▁finding	-7109
▁decrease	-7110
东道	-7111
克罗	-7112
分钟	-7113
十四	-7114
大陆	-7115
律宾	-7116
手册	-7117
期待	-7118
菲律宾	-7119
cing	-7120
osph	-7121
▁sah	-7122
九届会议	-7123
▁mari	-7124
▁investments	-7125
制作	-7126
可在	-7127
外层	-7128
▁turk	-7129
▁sought	-7130
▁interview	-7131
正规	-7132
死亡率	-7133
body	-7134
onia	-7135
▁channel	-7136
▁identity	-7137
▁instance	-7138
ka	-7139
加快	-7140
核可	-7141
的全球	-7142
▁remin	-7143
▁announced	-7144
▁specified	-7145
征聘	-7146
职权	-7147
""(	-7148
omen	-7149
▁26.	-7150
▁tit	-7151
主动	-7152
缅甸	-7153
ios	-7154
并不是	-7155
武装部队	-7156
ittee	-7157
▁answer	-7158
▁ownership	-7159
▁substantial	-7160
三年	-7161
vis	-7162
的战略	-7163
ocked	-7164
▁theme	-7165
▁inside	-7166
分摊	-7167
记者	-7168
auti	-7169
执行主任	-7170
▁figh	-7171
的决议草案	-7172
▁attemp	-7173
▁killed	-7174
▁vision	-7175
▁someone	-7176
所做	-7177
斗争	-7178
族裔	-7179
了一些	-7180
1991	-7181
▁hot	-7182
劳工组织	-7183
ommod	-7184
▁acces	-7185
▁husband	-7186
▁largest	-7187
▁popular	-7188
▁containing	-7189
▁maintained	-7190
员工	-7191
注重	-7192
赞成	-7193
prus	-7194
▁rob	-7195
经济增长	-7196
▁gaza	-7197
▁argentina	-7198
▁ld	-7199
附件一	-7200
▁pled	-7201
▁cyprus	-7202
▁nether	-7203
清洁	-7204
▁会议	-7205
一切形式	-7206
委员会和	-7207
▁fast	-7208
▁virt	-7209
人权高专办	-7210
▁simply	-7211
安全理事会主席	-7212
体现	-7213
外勤	-7214
放弃	-7215
人权的	-7216
ship	-7217
▁cru	-7218
▁ken	-7219
外层空间	-7220
forced	-7221
▁showed	-7222
▁numbers	-7223
▁accommod	-7224
▁principal	-7225
▁reintegration	-7226
▁四	-7227
争议	-7228
口头	-7229
多种	-7230
职务	-7231
连续	-7232
▁第一	-7233
▁许多	-7234
▁wond	-7235
tering	-7236
▁comply	-7237
▁satellite	-7238
发起	-7239
款项	-7240
终止	-7241
重复	-7242
政策的	-7243
▁faith	-7244
herence	-7245
gagement	-7246
▁supports	-7247
▁availability	-7248
减贫	-7249
促使	-7250
▁sr	-7251
所需的	-7252
ague	-7253
▁hur	-7254
▁depri	-7255
▁truth	-7256
▁favour	-7257
▁played	-7258
▁formulation	-7259
解除	-7260
▁cd	-7261
管理局	-7262
abling	-7263
▁colon	-7264
▁reservations	-7265
:(	-7266
年至	-7267
教授	-7268
方的	-7269
mark	-7270
▁ones	-7271
▁ocean	-7272
▁belief	-7273
▁netherlands	-7274
大大	-7275
尼斯	-7276
当然	-7277
大会第六十	-7278
▁embar	-7279
▁getting	-7280
▁targeted	-7281
确立	-7282
ept	-7283
faction	-7284
▁dispute	-7285
▁lebanese	-7286
▁sentence	-7287
▁protecting	-7288
▁maintaining	-7289
怀疑	-7290
▁retain	-7291
互动	-7292
后来	-7293
收益	-7294
物的	-7295
阿塞	-7296
fur	-7297
的内容	-7298
▁cas	-7299
▁tan	-7300
重要的是	-7301
▁fixed	-7302
▁river	-7303
▁object	-7304
▁amounts	-7305
▁located	-7306
▁pointed	-7307
▁allocation	-7308
定居	-7309
约翰	-7310
:""	-7311
osis	-7312
▁mines	-7313
▁nevertheless	-7314
最新	-7315
期望	-7316
男孩	-7317
讲话	-7318
ola	-7319
的关于	-7320
肯尼亚	-7321
▁happy	-7322
▁center	-7323
▁mental	-7324
▁zealand	-7325
中非	-7326
副主席	-7327
基础上	-7328
法律和	-7329
port	-7330
▁notice	-7331
▁thousands	-7332
▁realization	-7333
年和	-7334
意愿	-7335
议员	-7336
转型	-7337
ift	-7338
jud	-7339
的条件	-7340
▁arising	-7341
▁maximum	-7342
▁collabor	-7343
▁interven	-7344
▁worldwide	-7345
▁reasonable	-7346
▁coordinating	-7347
3/	-7348
了关于	-7349
tieth	-7350
▁camb	-7351
▁coal	-7352
▁combined	-7353
▁corporate	-7354
▁expresses	-7355
▁previously	-7356
▁鈥	-7357
想要	-7358
监禁	-7359
真的	-7360
阻止	-7361
必须在	-7362
▁carrying	-7363
建造	-7364
很难	-7365
拜疆	-7366
197	-7367
▁这项	-7368
阿塞拜疆	-7369
▁ideas	-7370
▁index	-7371
▁resist	-7372
▁publications	-7373
公共部门	-7374
▁fine	-7375
▁colombia	-7376
▁generation	-7377
▁substances	-7378
▁functioning	-7379
”,	-7380
格鲁	-7381
咨委会	-7382
的标准	-7383
thes	-7384
akers	-7385
zegov	-7386
dorsed	-7387
inding	-7388
▁clust	-7389
▁disputes	-7390
▁hospital	-7391
▁delivered	-7392
也会	-7393
看来	-7394
空缺	-7395
运行	-7396
▁les	-7397
▁pul	-7398
▁topic	-7399
▁wanted	-7400
da	-7401
两项	-7402
尽快	-7403
痛苦	-7404
▁75	-7405
条规定	-7406
社会发展	-7407
巴勒斯坦人民	-7408
▁destro	-7409
▁exclud	-7410
zegovina	-7411
▁empowerment	-7412
▁transportation	-7413
开幕	-7414
的各	-7415
ean	-7416
的关系	-7417
▁25.	-7418
和平进程	-7419
设立一个	-7420
▁built	-7421
▁attain	-7422
▁estimate	-7423
▁numerous	-7424
▁ratified	-7425
仅仅	-7426
任意	-7427
短期	-7428
▁秘书处	-7429
limin	-7430
有组织犯罪	-7431
▁facility	-7432
▁productive	-7433
▁herzegovina	-7434
空气	-7435
会议和	-7436
▁cam	-7437
▁len	-7438
▁join	-7439
▁grand	-7440
▁condem	-7441
▁liquid	-7442
▁online	-7443
▁constant	-7444
地利	-7445
好处	-7446
也可以	-7447
▁gap	-7448
aving	-7449
▁stip	-7450
▁britain	-7451
▁minutes	-7452
▁prelimin	-7453
▁intellect	-7454
的有效	-7455
观察团	-7456
▁clin	-7457
▁nomin	-7458
▁wishes	-7459
UN	-7460
秩序	-7461
要素	-7462
调解	-7463
还在	-7464
还要	-7465
和加勒比	-7466
▁latest	-7467
▁managers	-7468
▁incidents	-7469
▁pollution	-7470
▁television	-7471
地亚	-7472
潜力	-7473
的可	-7474
补偿	-7475
rat	-7476
的办法	-7477
经社会	-7478
除其他	-7479
▁option	-7480
▁drafting	-7481
)"	-7482
海关	-7483
称为	-7484
▁没有	-7485
奥地利	-7486
▁tried	-7487
▁overse	-7488
▁window	-7489
▁intensi	-7490
▁province	-7491
设想	-7492
金属	-7493
不得不	-7494
的经验	-7495
▁rose	-7496
▁transit	-7497
▁yugoslavia	-7498
▁reconstruction	-7499
具备	-7500
并未	-7501
马来	-7502
这些问题	-7503
毒品和犯罪问题办公室	-7504
▁frameworks	-7505
吉亚	-7506
已在	-7507
▁28.	-7508
▁bear	-7509
▁explan	-7510
▁amended	-7511
▁bearing	-7512
▁confirmed	-7513
▁adaptation	-7514
言论	-7515
目前的	-7516
▁voc	-7517
▁transnational	-7518
1,	-7519
共有	-7520
引渡	-7521
角色	-7522
还将	-7523
都会	-7524
▁contra	-7525
▁friday	-7526
▁transl	-7527
▁unique	-7528
▁complainant	-7529
▁transitional	-7530
机场	-7531
泰国	-7532
▁instruc	-7533
▁vehicle	-7534
▁contents	-7535
▁preliminary	-7536
性能	-7537
薪金	-7538
附加	-7539
限于	-7540
▁”“	-7541
的程序	-7542
经委会	-7543
设立了	-7544
▁race	-7545
▁image	-7546
▁choose	-7547
▁neighbour	-7548
▁receiving	-7549
▁differences	-7550
文章	-7551
极为	-7552
▁99	-7553
rely	-7554
urse	-7555
▁eat	-7556
▁lia	-7557
格鲁吉亚	-7558
委员会成员	-7559
▁music	-7560
▁surface	-7561
couraging	-7562
▁unemployment	-7563
▁各	-7564
两名	-7565
两种	-7566
克服	-7567
和对	-7568
覆盖	-7569
申诉人	-7570
的人口	-7571
lymp	-7572
▁consc	-7573
▁defic	-7574
伊斯兰共和国	-7575
▁examples	-7576
丰富	-7577
相反	-7578
过境	-7579
iry	-7580
作出的	-7581
供应商	-7582
▁ves	-7583
eries	-7584
▁georg	-7585
▁manage	-7586
▁recognizes	-7587
▁arbitration	-7588
▁constructive	-7589
ivo	-7590
tition	-7591
▁asset	-7592
▁grave	-7593
▁decent	-7594
▁british	-7595
▁intention	-7596
▁prisoners	-7597
-4	-7598
导言	-7599
想法	-7600
豁免	-7601
儿童和	-7602
的技术	-7603
▁sat	-7604
一般事务	-7605
▁olymp	-7606
▁exports	-7607
gineering	-7608
▁convened	-7609
▁publication	-7610
▁satisfaction	-7611
发射	-7612
听取	-7613
首次	-7614
马来西亚	-7615
▁organis	-7616
▁subsequently	-7617
▁characteristics	-7618
哈拉	-7619
突出	-7620
▁names	-7621
人居	-7622
创建	-7623
宗旨	-7624
简要	-7625
行预	-7626
解放	-7627
和环境	-7628
▁azer	-7629
▁game	-7630
▁nigeria	-7631
▁assessed	-7632
▁geographical	-7633
几年	-7634
在一	-7635
bai	-7636
利比亚	-7637
表示关切	-7638
裁军谈判	-7639
这些国家	-7640
ieties	-7641
ulating	-7642
▁choice	-7643
▁unable	-7644
▁believes	-7645
国务	-7646
移动	-7647
uay	-7648
的目的	-7649
ingu	-7650
with	-7651
▁cul	-7652
▁vide	-7653
▁afford	-7654
.4	-7655
蒙特	-7656
设法	-7657
▁ced	-7658
联合国各	-7659
行预咨委会	-7660
ections	-7661
▁burundi	-7662
▁morocco	-7663
▁systematic	-7664
低于	-7665
分布	-7666
加上	-7667
十七	-7668
十六	-7669
职等	-7670
重返	-7671
tel	-7672
▁kh	-7673
特里亚	-7674
▁monday	-7675
▁pending	-7676
▁philipp	-7677
与其	-7678
作业	-7679
odc	-7680
▁hom	-7681
政治权利	-7682
▁phen	-7683
rators	-7684
伦敦	-7685
声音	-7686
广播	-7687
询问	-7688
运用	-7689
和加强	-7690
的资金	-7691
的需求	-7692
联合会	-7693
▁27.	-7694
▁dia	-7695
经济发展	-7696
ondon	-7697
▁lines	-7698
▁changing	-7699
▁difference	-7700
▁commissions	-7701
56	-7702
掌握	-7703
时的	-7704
毁灭	-7705
rol	-7706
▁mi	-7707
ylum	-7708
▁ilo	-7709
▁ecos	-7710
▁flows	-7711
▁asylum	-7712
▁partner	-7713
▁ethiopia	-7714
▁conventional	-7715
发放	-7716
主要是	-7717
的人权	-7718
的管理	-7719
haps	-7720
▁box	-7721
▁mobil	-7722
▁testing	-7723
将是	-7724
图书馆	-7725
mine	-7726
baijan	-7727
▁affir	-7728
▁memor	-7729
▁thanks	-7730
▁discrimin	-7731
dp	-7732
厄立	-7733
和在	-7734
很少	-7735
最好	-7736
补助	-7737
▁cp	-7738
制定了	-7739
劳动力	-7740
▁map	-7741
▁shan	-7742
厄立特里亚	-7743
▁temper	-7744
▁troops	-7745
▁azerbaijan	-7746
恶化	-7747
方便	-7748
雇主	-7749
被认为	-7750
▁unli	-7751
阿尔及利亚	-7752
▁drawn	-7753
▁advancement	-7754
每一个	-7755
▁mist	-7756
▁iraqi	-7757
▁voice	-7758
▁intellectual	-7759
妻子	-7760
广告	-7761
拨款	-7762
▁hyd	-7763
▁swe	-7764
erted	-7765
▁changed	-7766
Al	-7767
格的	-7768
和方案	-7769
ives	-7770
▁attended	-7771
▁achievements	-7772
智利	-7773
结婚	-7774
▁78	-7775
▁同样	-7776
的理由	-7777
▁安理会	-7778
的可能性	-7779
▁hour	-7780
▁impacts	-7781
▁penalty	-7782
初级	-7783
政党	-7784
用品	-7785
取得进展	-7786
▁dism	-7787
▁sole	-7788
▁updated	-7789
检测	-7790
比如	-7791
衡量	-7792
▁下午	-7793
▁因为	-7794
一直在	-7795
resh	-7796
▁hazard	-7797
▁london	-7798
▁pursue	-7799
护理	-7800
民众	-7801
巨大的	-7802
现有的	-7803
▁argu	-7804
joyment	-7805
▁abroad	-7806
信息和通信技术	-7807
▁jointly	-7808
▁thereby	-7809
▁sanitation	-7810
▁transparent	-7811
信贷	-7812
南南	-7813
失败	-7814
拉圭	-7815
某一	-7816
认真	-7817
▁,7	-7818
char	-7819
rant	-7820
财务报表	-7821
▁inequ	-7822
▁expanded	-7823
▁disappear	-7824
描述	-7825
▁报告	-7826
的事情	-7827
▁.15	-7828
▁rot	-7829
ivoire	-7830
▁offence	-7831
▁perhaps	-7832
▁equitable	-7833
和黑	-7834
设置	-7835
原因是	-7836
贸易法	-7837
▁bab	-7838
▁ran	-7839
▁barri	-7840
产权	-7841
就像	-7842
的相关	-7843
的调查	-7844
这两个	-7845
▁arg	-7846
信息技术	-7847
非洲国家	-7848
raine	-7849
▁regret	-7850
▁collect	-7851
一道	-7852
塞哥	-7853
奥运	-7854
流行	-7855
退休	-7856
养恤金	-7857
▁chile	-7858
▁extension	-7859
▁mainstreaming	-7860
两国	-7861
优势	-7862
澄清	-7863
贩卖	-7864
目标是	-7865
▁nav	-7866
▁sor	-7867
白俄罗斯	-7868
▁sides	-7869
▁unodc	-7870
委员会注意到	-7871
▁appears	-7872
▁charges	-7873
▁resolve	-7874
▁mortality	-7875
削减	-7876
照顾	-7877
约旦	-7878
塞哥维	-7879
还没有	-7880
▁hoped	-7881
ventive	-7882
▁stream	-7883
▁mountain	-7884
▁soldiers	-7885
▁affecting	-7886
▁initiated	-7887
▁improvements	-7888
88	-7889
投资者	-7890
教科文	-7891
▁fit	-7892
▁accused	-7893
▁examine	-7894
▁ukraine	-7895
▁location	-7896
▁multiple	-7897
▁increases	-7898
ky	-7899
了一份	-7900
根据第	-7901
的必要	-7902
▁coh	-7903
▁fal	-7904
▁born	-7905
▁dign	-7906
▁talks	-7907
▁latter	-7908
丈夫	-7909
五年	-7910
看见	-7911
与合作	-7912
augh	-7913
少数民族	-7914
▁send	-7915
▁ultim	-7916
▁neither	-7917
▁investors	-7918
▁conservation	-7919
/0	-7920
丹麦	-7921
培养	-7922
安置	-7923
▁hu	-7924
itre	-7925
这方面的	-7926
行政和预算	-7927
▁darfur	-7928
▁reviews	-7929
▁remember	-7930
▁suffering	-7931
▁subcommittee	-7932
NF	-7933
加工	-7934
安装	-7935
干达	-7936
故事	-7937
迫切	-7938
▁"2	-7939
在执行	-7940
的区域	-7941
▁ren	-7942
▁kept	-7943
▁tend	-7944
▁correc	-7945
▁savings	-7946
▁attached	-7947
产出	-7948
北部	-7949
应付	-7950
民事	-7951
销毁	-7952
乌干达	-7953
以及其他	-7954
塞哥维那	-7955
经常预算	-7956
▁brid	-7957
marily	-7958
▁helped	-7959
下去	-7960
当选	-7961
植物	-7962
正是	-7963
▁随着	-7964
是什么	-7965
▁dro	-7966
人道主义援助	-7967
▁formed	-7968
utrition	-7969
▁quickly	-7970
▁returned	-7971
▁selection	-7972
巴布	-7973
弱势	-7974
asc	-7975
lin	-7976
上文第	-7977
的培训	-7978
许可证	-7979
▁books	-7980
▁college	-7981
▁preparing	-7982
▁M	-7983
士兵	-7984
推迟	-7985
谅解	-7986
▁它们	-7987
良好的	-7988
没有任何	-7989
ordan	-7990
uable	-7991
▁issu	-7992
elling	-7993
roduce	-7994
▁troop	-7995
▁passed	-7996
▁speech	-7997
▁binding	-7998
伊朗伊斯兰共和国	-7999
▁resident	-8000
▁structural	-8001
主张	-8002
部长级	-8003
▁inqu	-8004
▁variety	-8005
▁judiciary	-8006
▁preventive	-8007
上帝	-8008
目录	-8009
▁73	-8010
全球化	-8011
lines	-8012
▁hung	-8013
▁reve	-8014
▁unif	-8015
ailand	-8016
ription	-8017
▁investigate	-8018
▁prohibition	-8019
女人	-8020
提名	-8021
撒冷	-8022
来看	-8023
消耗	-8024
游戏	-8025
ôte	-8026
在一个	-8027
被占领	-8028
问题上	-8029
▁declared	-8030
▁thailand	-8031
充满	-8032
前往	-8033
学术	-8034
的名	-8035
耶路	-8036
说的	-8037
并确保	-8038
此同时	-8039
的会议	-8040
▁31.	-8041
▁ict	-8042
自然资源	-8043
▁côte	-8044
▁facts	-8045
阿拉伯叙利亚	-8046
▁acquis	-8047
▁library	-8048
▁sensitive	-8049
▁relatively	-8050
隔离	-8051
存在的	-8052
新西兰	-8053
核裁军	-8054
百分比	-8055
耶路撒冷	-8056
▁older	-8057
▁recip	-8058
▁maritime	-8059
▁supervision	-8060
囚犯	-8061
巴黎	-8062
amp	-8063
▁bom	-8064
▁sam	-8065
▁tai	-8066
▁blue	-8067
▁doesn	-8068
▁paris	-8069
▁write	-8070
▁cambod	-8071
▁limits	-8072
▁stable	-8073
▁figures	-8074
▁version	-8075
拉丁美洲和加勒比	-8076
▁revision	-8077
▁represents	-8078
一条	-8079
下文	-8080
动力	-8081
应急	-8082
有着	-8083
间的	-8084
互联网	-8085
▁pet	-8086
▁saying	-8087
▁exchang	-8088
▁leaving	-8089
▁advocacy	-8090
▁schedule	-8091
▁stations	-8092
▁allocated	-8093
▁liability	-8094
▁logistics	-8095
▁primarily	-8096
出于	-8097
考试	-8098
udi	-8099
密切合作	-8100
phone	-8101
▁copy	-8102
▁user	-8103
▁austri	-8104
▁eritre	-8105
▁monetary	-8106
出售	-8107
埔寨	-8108
太阳	-8109
案例	-8110
规约	-8111
roc	-8112
柬埔寨	-8113
rene	-8114
所需资源	-8115
vious	-8116
▁beauti	-8117
▁spanish	-8118
▁associations	-8119
玻利	-8120
而不	-8121
邮件	-8122
ali	-8123
aves	-8124
esco	-8125
rist	-8126
提供援助	-8127
▁liby	-8128
▁discl	-8129
▁gives	-8130
▁jordan	-8131
▁decades	-8132
▁digital	-8133
▁occurred	-8134
▁phenomen	-8135
备忘	-8136
正义	-8137
沙特	-8138
经理	-8139
措施的	-8140
deav	-8141
▁identifying	-8142
为其	-8143
生存	-8144
界定	-8145
自决	-8146
▁,0	-8147
消费者	-8148
的人道	-8149
需要的	-8150
定期报告	-8151
▁internally	-8152
产业	-8153
体的	-8154
比利	-8155
备忘录	-8156
采取的行动	-8157
▁innovation	-8158
总数	-8159
我在	-8160
概算	-8161
有机会	-8162
rown	-8163
▁30.	-8164
▁pill	-8165
▁alger	-8166
▁employed	-8167
▁reservation	-8168
▁transactions	-8169
事故	-8170
取代	-8171
哥拉	-8172
继承	-8173
捐助者	-8174
atri	-8175
oler	-8176
▁.30	-8177
▁err	-8178
▁sir	-8179
▁rend	-8180
▁chain	-8181
▁remote	-8182
▁forests	-8183
▁他说	-8184
▁32.	-8185
▁ign	-8186
▁,500	-8187
▁prefer	-8188
▁running	-8189
▁accompan	-8190
▁currency	-8191
▁register	-8192
▁facilitating	-8193
ox	-8194
工会	-8195
的审议	-8196
▁file	-8197
农民	-8198
是有	-8199
都在	-8200
arc	-8201
▁他的	-8202
▁第四	-8203
向大会	-8204
履行其	-8205
意识到	-8206
▁29.	-8207
usalem	-8208
▁burden	-8209
▁sports	-8210
阿拉伯叙利亚共和国	-8211
▁jerusalem	-8212
▁innovative	-8213
▁sustainability	-8214
主办	-8215
工艺	-8216
Rev	-8217
ita	-8218
在过去	-8219
安哥拉	-8220
▁becoming	-8221
▁coordinate	-8222
▁legitimate	-8223
▁constraints	-8224
关心	-8225
所谓	-8226
排除	-8227
月份	-8228
月至	-8229
证券	-8230
▁nai	-8231
dered	-8232
iscal	-8233
cessive	-8234
▁croati	-8235
▁larger	-8236
▁adverse	-8237
▁warning	-8238
▁regularly	-8239
CE	-8240
提醒	-8241
被视为	-8242
▁abol	-8243
▁spok	-8244
▁pilot	-8245
▁counsel	-8246
▁discriminatory	-8247
别人	-8248
听到	-8249
接近	-8250
ttp	-8251
▁kill	-8252
▁malay	-8253
▁match	-8254
▁timor	-8255
▁seminar	-8256
不良	-8257
列的	-8258
情形	-8259
或许	-8260
lor	-8261
和服务	-8262
▁fao	-8263
▁unp	-8264
世界各地	-8265
▁kenya	-8266
▁unesco	-8267
绝对	-8268
▁kn	-8269
和协调	-8270
更大的	-8271
crib	-8272
▁hun	-8273
▁npt	-8274
▁stim	-8275
的人道主义	-8276
▁russia	-8277
▁monthly	-8278
▁controls	-8279
多年	-8280
秘鲁	-8281
色的	-8282
如果你	-8283
孟加拉	-8284
▁nic	-8285
方面发挥	-8286
urate	-8287
▁drop	-8288
▁story	-8289
▁repeated	-8290
▁extremely	-8291
▁demonstrated	-8292
被拘留	-8293
▁hit	-8294
克罗地亚	-8295
ystem	-8296
预防犯罪和	-8297
▁links	-8298
交付	-8299
始终	-8300
承包	-8301
缺少	-8302
▁项目	-8303
目前正在	-8304
▁bott	-8305
▁dark	-8306
▁unam	-8307
▁sweden	-8308
▁volume	-8309
实现千年发展目标	-8310
▁safeguards	-8311
▁capabilities	-8312
一家	-8313
理想	-8314
com	-8315
一系列	-8316
▁34.	-8317
▁35.	-8318
▁dedic	-8319
▁fiscal	-8320
▁mobile	-8321
▁inspect	-8322
▁invites	-8323
▁obvious	-8324
▁weather	-8325
▁released	-8326
▁intelligence	-8327
负债	-8328
卫生组织	-8329
▁carbon	-8330
▁papers	-8331
▁correct	-8332
▁explore	-8333
▁largely	-8334
▁scheduled	-8335
▁每	-8336
否则	-8337
惯例	-8338
节目	-8339
证人	-8340
▁研究	-8341
和实施	-8342
进展情况	-8343
ivers	-8344
▁deser	-8345
▁track	-8346
▁village	-8347
▁arrested	-8348
▁manufacture	-8349
军备	-8350
完善	-8351
对待	-8352
在这一	-8353
荒漠化	-8354
▁如果你	-8355
▁guard	-8356
▁academic	-8357
▁auditors	-8358
▁covering	-8359
▁beautiful	-8360
▁historical	-8361
捷克	-8362
病毒	-8363
至于	-8364
leb	-8365
robi	-8366
▁manif	-8367
▁attempt	-8368
▁yourself	-8369
▁intervention	-8370
仍在	-8371
公路	-8372
南亚	-8373
渔业	-8374
眼睛	-8375
逐渐	-8376
配置	-8377
▁这样	-8378
葡萄牙	-8379
▁beg	-8380
特派团的	-8381
-2011	-8382
▁camer	-8383
▁games	-8384
▁served	-8385
▁reading	-8386
▁disabled	-8387
▁indicates	-8388
一天	-8389
也在	-8390
固定	-8391
波兰	-8392
mad	-8393
▁tex	-8394
副秘书长	-8395
▁boys	-8396
▁cedaw	-8397
▁length	-8398
分散	-8399
加速	-8400
已有	-8401
▁85	-8402
》、《	-8403
他们在	-8404
制度的	-8405
撒哈拉	-8406
▁demands	-8407
▁patients	-8408
▁philippines	-8409
小的	-8410
▁md	-8411
▁我国	-8412
东道国	-8413
以促进	-8414
理事会第	-8415
▁chance	-8416
行政和预算问题	-8417
▁nairobi	-8418
▁dangerous	-8419
▁societies	-8420
▁programming	-8421
住区	-8422
尊严	-8423
边境	-8424
yle	-8425
的同时	-8426
erce	-8427
ster	-8428
▁rain	-8429
ennial	-8430
▁trained	-8431
▁believed	-8432
▁friendly	-8433
85	-8434
ba	-8435
两次	-8436
基准	-8437
尽量	-8438
早期	-8439
男人	-8440
新闻部	-8441
sile	-8442
▁john	-8443
▁budgets	-8444
▁managed	-8445
▁remedies	-8446
▁staffing	-8447
▁protocols	-8448
备选	-8449
康复	-8450
oud	-8451
各区域	-8452
-2009	-8453
asing	-8454
▁rent	-8455
科学和技术	-8456
▁examined	-8457
▁utilization	-8458
斯里	-8459
是为了	-8460
▁mark	-8461
非正式协商	-8462
▁summar	-8463
▁serving	-8464
▁introduce	-8465
▁techniques	-8466
72	-8467
▁总	-8468
空中	-8469
中心的	-8470
影响到	-8471
设立的	-8472
▁dog	-8473
协商一致	-8474
除其他外	-8475
adesh	-8476
astic	-8477
▁male	-8478
▁shop	-8479
zation	-8480
▁antic	-8481
▁belar	-8482
▁unops	-8483
▁update	-8484
▁conformity	-8485
uk	-8486
per	-8487
的风险	-8488
▁brok	-8489
stance	-8490
▁turned	-8491
▁reiterated	-8492
-2	-8493
▁F	-8494
亚美	-8495
卖淫	-8496
年在	-8497
遵循	-8498
了一项	-8499
aled	-8500
▁hum	-8501
▁vii	-8502
▁divid	-8503
万人	-8504
爱的	-8505
连接	-8506
▁79	-8507
所有人	-8508
▁36.	-8509
亚美尼亚	-8510
▁save	-8511
采取的措施	-8512
coming	-8513
▁destroy	-8514
▁message	-8515
▁teacher	-8516
▁stresses	-8517
▁ecosystem	-8518
ja	-8519
▁=	-8520
印发	-8521
最初	-8522
比率	-8523
/60	-8524
ero	-8525
培训和	-8526
▁dry	-8527
▁soil	-8528
教科文组织	-8529
ladesh	-8530
▁behavi	-8531
▁mining	-8532
国际和平与安全	-8533
▁manager	-8534
▁reserve	-8535
▁是	-8536
形势	-8537
独特	-8538
补贴	-8539
转变	-8540
▁os	-8541
发基金	-8542
收到的	-8543
▁ratify	-8544
▁strugg	-8545
▁convinc	-8546
▁thinking	-8547
力和	-8548
毛里	-8549
破产	-8550
.10	-8551
ady	-8552
▁98	-8553
发言者	-8554
经济和	-8555
所需经费	-8556
adequ	-8557
▁insu	-8558
▁overview	-8559
▁solidarity	-8560
mi	-8561
内陆	-8562
暂停	-8563
urg	-8564
www	-8565
▁cc	-8566
▁其中	-8567
的使用	-8568
usted	-8569
▁fell	-8570
▁shar	-8571
促进和保护	-8572
▁basel	-8573
▁manual	-8574
▁inadequ	-8575
▁periods	-8576
以为	-8577
兰卡	-8578
名额	-8579
坚定	-8580
组合	-8581
驻地	-8582
ets	-8583
▁76	-8584
仍然是	-8585
▁flu	-8586
决定草案	-8587
合作伙伴	-8588
▁spent	-8589
▁authors	-8590
▁bringing	-8591
▁unilateral	-8592
侧重	-8593
帐户	-8594
度的	-8595
房间	-8596
商定的	-8597
▁33.	-8598
▁peru	-8599
▁focal	-8600
▁prompt	-8601
▁acceptance	-8602
▁industries	-8603
▁中	-8604
婴儿	-8605
汇率	-8606
衣服	-8607
首席	-8608
建议的	-8609
政府在	-8610
ball	-8611
▁sad	-8612
▁tues	-8613
▁moving	-8614
▁reality	-8615
▁washing	-8616
▁bangladesh	-8617
zh	-8618
储备	-8619
区别	-8620
多尔	-8621
气体	-8622
测量	-8623
渠道	-8624
灭绝	-8625
的人数	-8626
的成员	-8627
管辖权	-8628
▁features	-8629
▁联	-8630
给你	-8631
room	-8632
▁mem	-8633
▁unl	-8634
自然灾害	-8635
using	-8636
▁roles	-8637
minating	-8638
▁tuesday	-8639
▁commerce	-8640
▁reaffirms	-8641
循环	-8642
更大	-8643
问题和	-8644
▁37.	-8645
会计准则	-8646
anmar	-8647
▁stocks	-8648
▁contrary	-8649
法定	-8650
策略	-8651
▁74	-8652
▁今天	-8653
程序的	-8654
▁elabor	-8655
▁dignity	-8656
▁uniform	-8657
▁seminars	-8658
▁obstacles	-8659
明白	-8660
有害	-8661
边缘	-8662
▁所以	-8663
次报告	-8664
真正的	-8665
突尼斯	-8666
另一方面	-8667
塞尔维亚	-8668
贩运人口	-8669
问题世界	-8670
(2004	-8671
▁deem	-8672
▁stab	-8673
▁laund	-8674
▁summer	-8675
▁violated	-8676
▁adjustment	-8677
▁guarantees	-8678
▁ministries	-8679
▁reiterates	-8680
▁composition	-8681
ccc	-8682
违反了	-8683
尤其是在	-8684
积极参与	-8685
▁1989	-8686
▁offers	-8687
小岛屿发展中国家	-8688
▁rational	-8689
▁arbitrary	-8690
▁buildings	-8691
%)	-8692
Ch	-8693
动态	-8694
回到	-8695
日常	-8696
▁cz	-8697
一体化	-8698
和促进	-8699
urch	-8700
向委员会	-8701
年度报告	-8702
inting	-8703
▁boliv	-8704
▁carri	-8705
▁perfect	-8706
▁reaffirming	-8707
▁马	-8708
尼泊	-8709
gor	-8710
可能是	-8711
尼泊尔	-8712
▁anc	-8713
▁disag	-8714
▁doubt	-8715
▁telec	-8716
▁myanmar	-8717
▁deliberations	-8718
加剧	-8719
民国	-8720
粮农	-8721
▁71	-8722
▁deeply	-8723
▁preced	-8724
上海	-8725
变革	-8726
所得	-8727
ili	-8728
人民的	-8729
是根据	-8730
▁dispos	-8731
▁equival	-8732
▁probably	-8733
事先	-8734
每月	-8735
汇编	-8736
开展的	-8737
强调了	-8738
▁gon	-8739
作为一个	-8740
reach	-8741
▁phot	-8742
国际人道主义法	-8743
poration	-8744
▁greatly	-8745
98	-8746
厄瓜	-8747
我就	-8748
签名	-8749
缔结	-8750
芬兰	-8751
emy	-8752
▁ye	-8753
▁回顾	-8754
▁除了	-8755
斯里兰卡	-8756
▁ldcs	-8757
▁celeb	-8758
▁saudi	-8759
和华	-8760
导弹	-8761
lan	-8762
更好的	-8763
▁fru	-8764
▁mur	-8765
▁tot	-8766
▁parent	-8767
▁healthy	-8768
▁suggest	-8769
协同	-8770
斯特	-8771
提案国	-8772
监督厅	-8773
▁以色列	-8774
厄瓜多尔	-8775
最佳做法	-8776
▁bond	-8777
▁trou	-8778
onomic	-8779
▁homes	-8780
▁assisting	-8781
▁vulnerability	-8782
▁以	-8783
交给	-8784
ped	-8785
▁pu	-8786
我们在	-8787
语发言	-8788
▁omb	-8789
许多国家	-8790
ursday	-8791
▁absol	-8792
▁surpr	-8793
▁breach	-8794
▁equity	-8795
▁joined	-8796
▁cluster	-8797
▁hearing	-8798
▁inhuman	-8799
▁machine	-8800
▁purchase	-8801
▁suffered	-8802
▁thursday	-8803
▁seriously	-8804
76	-8805
▁由	-8806
但在	-8807
权和	-8808
繁荣	-8809
代表的	-8810
重要作用	-8811
▁algeria	-8812
▁letters	-8813
▁liberal	-8814
▁revenue	-8815
▁malaysia	-8816
▁oriented	-8817
▁sections	-8818
▁desertification	-8819
▁+	-8820
不论	-8821
会在	-8822
先前	-8823
博士	-8824
拖延	-8825
警方	-8826
一个人	-8827
未来的	-8828
的东西	-8829
的认识	-8830
▁ton	-8831
▁curric	-8832
▁double	-8833
▁uganda	-8834
▁consumer	-8835
▁recalled	-8836
-5	-8837
召集	-8838
商务	-8839
我不	-8840
zed	-8841
▁有关	-8842
性暴力	-8843
的范围	-8844
▁die	-8845
▁ahead	-8846
▁wealth	-8847
▁student	-8848
▁focusing	-8849
▁contracting	-8850
ST	-8851
共体	-8852
在内	-8853
地的	-8854
或有	-8855
萨尔	-8856
遣队	-8857
麻醉	-8858
▁goes	-8859
iently	-8860
▁cease	-8861
▁imped	-8862
▁portug	-8863
▁japanese	-8864
▁distributed	-8865
▁methodology	-8866
/1	-8867
做了	-8868
批评	-8869
文本	-8870
看看	-8871
视察	-8872
yal	-8873
▁ok	-8874
rend	-8875
▁eye	-8876
▁alle	-8877
环境规划署	-8878
▁exped	-8879
▁ombud	-8880
▁career	-8881
▁storage	-8882
▁humanity	-8883
得出	-8884
总结	-8885
或是	-8886
网上	-8887
▁我想	-8888
▁eld	-8889
▁oios	-8890
▁drive	-8891
▁doctor	-8892
▁anticip	-8893
▁suitable	-8894
一旦	-8895
侵略	-8896
后者	-8897
瑞拉	-8898
着手	-8899
雇用	-8900
安全的	-8901
oned	-8902
咨询意见	-8903
▁arts	-8904
▁reimb	-8905
▁toler	-8906
▁安全理事会	-8907
ommunic	-8908
▁parame	-8909
▁wednes	-8910
▁belarus	-8911
▁marginal	-8912
▁complaint	-8913
▁exception	-8914
▁transmitted	-8915
▁preparations	-8916
▁parliamentary	-8917
岁的	-8918
等待	-8919
部和	-8920
aid	-8921
合作的	-8922
最高法院	-8923
▁czech	-8924
▁salary	-8925
▁outreach	-8926
▁wednesday	-8927
不久	-8928
委内	-8929
永久	-8930
▁sn	-8931
的实施	-8932
▁sri	-8933
关切的是	-8934
委内瑞拉	-8935
工作人员的	-8936
▁armen	-8937
▁looks	-8938
reprene	-8939
atically	-8940
▁inflation	-8941
▁acquisition	-8942
充足	-8943
前景	-8944
哈萨	-8945
革命	-8946
.4/	-8947
科学家	-8948
▁bes	-8949
▁cry	-8950
▁事实上	-8951
▁cruel	-8952
▁depth	-8953
▁landl	-8954
▁adoles	-8955
▁output	-8956
▁reaching	-8957
▁campaigns	-8958
▁explained	-8959
▁locations	-8960
▁consequently	-8961
kh	-8962
▁I	-8963
五个	-8964
其在	-8965
是最	-8966
ney	-8967
出现的	-8968
有义务	-8969
其他国家	-8970
▁valuable	-8971
▁productivity	-8972
偿还	-8973
是指	-8974
罗毕	-8975
见的	-8976
近东	-8977
中国的	-8978
实施的	-8979
不扩散条约	-8980
▁tenth	-8981
▁mercury	-8982
▁starting	-8983
▁corresponding	-8984
74	-8985
任职	-8986
何种	-8987
宏观	-8988
审评	-8989
以及对	-8990
和有关	-8991
here	-8992
金融机构	-8993
pread	-8994
▁impris	-8995
▁models	-8996
▁decline	-8997
▁helping	-8998
▁presidential	-8999
成了	-9000
比利时	-9001
独立的	-9002
▁wto	-9003
▁wait	-9004
▁dealt	-9005
▁briefing	-9006
▁cambodia	-9007
▁inventory	-9008
▁witnesses	-9009
分庭	-9010
危地	-9011
签订	-9012
规章	-9013
sels	-9014
tail	-9015
▁120	-9016
▁ecu	-9017
危地马拉	-9018
▁touch	-9019
▁anyone	-9020
▁objects	-9021
▁telephone	-9022
中间	-9023
格式	-9024
氧化	-9025
识别	-9026
配合	-9027
项下	-9028
/10	-9029
人权利	-9030
▁atm	-9031
▁escap	-9032
▁wides	-9033
▁segment	-9034
▁welcoming	-9035
▁widespread	-9036
▁imprisonment	-9037
下一	-9038
地带	-9039
患者	-9040
提升	-9041
陈述	-9042
▁"3	-9043
▁上午	-9044
管理的	-9045
让我们	-9046
近年来	-9047
提供支助	-9048
▁narco	-9049
▁tunis	-9050
提高妇女地位	-9051
▁pleased	-9052
上了	-9053
天气	-9054
晚上	-9055
有机	-9056
洗钱	-9057
ping	-9058
▁hal	-9059
专家小组	-9060
孟加拉国	-9061
禁止酷刑	-9062
▁knew	-9063
▁pret	-9064
▁reply	-9065
▁wider	-9066
iplinary	-9067
treprene	-9068
▁resumed	-9069
▁fighting	-9070
▁mandated	-9071
以此	-9072
员和	-9073
投诉	-9074
法的	-9075
第一个	-9076
▁kaz	-9077
▁cancer	-9078
▁intoler	-9079
▁outlined	-9080
于是	-9081
家人	-9082
路线	-9083
150	-9084
▁sb	-9085
▁人们	-9086
不平等	-9087
在所有	-9088
fort	-9089
▁urg	-9090
▁第五十	-9091
▁第六十	-9092
house	-9093
▁excep	-9094
地震	-9095
毕业	-9096
真实	-9097
维修	-9098
可能的	-9099
▁bah	-9100
vance	-9101
▁incen	-9102
▁video	-9103
▁format	-9104
▁confirm	-9105
▁equally	-9106
▁liaison	-9107
▁profess	-9108
▁absolute	-9109
▁premises	-9110
▁exclusive	-9111
▁transferred	-9112
为期	-9113
开会	-9114
有益	-9115
协调和	-9116
服务和	-9117
生活在	-9118
预防和	-9119
▁gdp	-9120
apore	-9121
aters	-9122
space	-9123
▁scre	-9124
哈萨克斯坦	-9125
ertain	-9126
儿童权利公约	-9127
▁christ	-9128
▁georgia	-9129
▁performed	-9130
机器	-9131
用水	-9132
发生了	-9133
性武器	-9134
的最新	-9135
的讨论	-9136
耶和华	-9137
规定了	-9138
▁exha	-9139
前南斯拉夫	-9140
atemal	-9141
▁season	-9142
economic	-9143
▁guatemal	-9144
▁mobilization	-9145
▁perpetrators	-9146
九条	-9147
周年	-9148
幸福	-9149
诊断	-9150
转递	-9151
限度	-9152
els	-9153
产生了	-9154
未成年	-9155
韩民国	-9156
otes	-9157
▁212	-9158
▁ngo	-9159
志愿人员	-9160
matic	-9161
▁sets	-9162
advant	-9163
▁impar	-9164
▁spring	-9165
▁singapore	-9166
▁contingent	-9167
1(	-9168
加大	-9169
正当	-9170
秘密	-9171
bid	-9172
▁72	-9173
▁按照	-9174
市场的	-9175
back	-9176
▁kil	-9177
专业人员	-9178
贸易法委员会	-9179
▁church	-9180
▁treated	-9181
▁detained	-9182
▁sponsors	-9183
▁nationals	-9184
▁continuous	-9185
▁interventions	-9186
79	-9187
房子	-9188
就可以	-9189
aint	-9190
ruct	-9191
▁pra	-9192
▁reb	-9193
行政当局	-9194
icted	-9195
pping	-9196
▁adver	-9197
▁unity	-9198
▁distinc	-9199
▁ecuador	-9200
▁disadvant	-9201
▁vocational	-9202
不够	-9203
将为	-9204
将来	-9205
汇报	-9206
越南	-9207
▁ji	-9208
▁截至	-9209
报告说	-9210
的那样	-9211
(2001	-9212
▁cast	-9213
▁feas	-9214
▁sleep	-9215
问题特别报告员	-9216
▁eritrea	-9217
▁visited	-9218
▁assigned	-9219
▁greatest	-9220
强奸	-9221
快乐	-9222
现状	-9223
阐述	-9224
境内的	-9225
收到了	-9226
确定的	-9227
▁38.	-9228
▁cab	-9229
生态系统	-9230
知识产权	-9231
大会第五十	-9232
▁apart	-9233
▁studied	-9234
▁annivers	-9235
▁incident	-9236
预防犯罪和刑事司法	-9237
▁controlled	-9238
▁competitive	-9239
▁suggestions	-9240
标志	-9241
rel	-9242
的定义	-9243
问责制	-9244
基本自由	-9245
▁walk	-9246
▁fresh	-9247
裁军谈判会议	-9248
▁easily	-9249
▁spending	-9250
▁commodity	-9251
▁subjected	-9252
▁uncertain	-9253
.9	-9254
do	-9255
不在	-9256
有了	-9257
▁89	-9258
▁必须	-9259
有力的	-9260
研究和	-9261
作出决定	-9262
▁1988	-9263
公民权利和	-9264
ictions	-9265
▁profit	-9266
▁cutting	-9267
▁impunity	-9268
▁allowance	-9269
▁translation	-9270
兄弟	-9271
并与	-9272
强化	-9273
总值	-9274
房屋	-9275
文职	-9276
裁定	-9277
金额	-9278
▁95	-9279
▁nepal	-9280
ography	-9281
塔尔	-9282
推行	-9283
有什么	-9284
ghai	-9285
ults	-9286
▁lank	-9287
▁genoc	-9288
▁input	-9289
▁illust	-9290
▁square	-9291
之处	-9292
余额	-9293
十字	-9294
现场	-9295
aur	-9296
▁brother	-9297
▁relevance	-9298
▁observation	-9299
▁insufficient	-9300
例外	-9301
关闭	-9302
加坡	-9303
升级	-9304
探索	-9305
档案	-9306
报告第	-9307
tian	-9308
一些国家	-9309
▁coup	-9310
▁gradu	-9311
官方发展援助	-9312
▁balanced	-9313
▁prostitution	-9314
zy	-9315
▁已	-9316
好了	-9317
彼此	-9318
愿望	-9319
排雷	-9320
自行	-9321
说法	-9322
地位的	-9323
存在着	-9324
的案件	-9325
fers	-9326
rees	-9327
erity	-9328
▁poly	-9329
▁vene	-9330
▁moved	-9331
▁steel	-9332
cession	-9333
▁rising	-9334
▁wished	-9335
▁austria	-9336
京都	-9337
单一	-9338
大型	-9339
拉斯	-9340
缺陷	-9341
老师	-9342
距离	-9343
辩护	-9344
bed	-9345
孩子们	-9346
iled	-9347
委员会第	-9348
▁hall	-9349
inance	-9350
▁shift	-9351
▁upgra	-9352
▁allows	-9353
▁colonial	-9354
▁conducting	-9355
rd	-9356
参数	-9357
的那	-9358
/11	-9359
oty	-9360
有能力	-9361
▁gains	-9362
▁moral	-9363
▁angola	-9364
▁archit	-9365
▁atmosph	-9366
▁croatia	-9367
▁reflects	-9368
▁dimension	-9369
▁anniversary	-9370
▁又	-9371
依法	-9372
加纳	-9373
很好	-9374
您的	-9375
改为	-9376
获悉	-9377
和支持	-9378
感兴趣	-9379
第三次	-9380
提出报告	-9381
▁tree	-9382
morrow	-9383
▁contemp	-9384
▁farmers	-9385
▁prevail	-9386
/8	-9387
传染	-9388
变动	-9389
基督	-9390
手术	-9391
披露	-9392
继续努力	-9393
▁1980	-9394
▁belg	-9395
专员办事处	-9396
▁seemed	-9397
▁taiwan	-9398
常驻联合国代表	-9399
▁tomorrow	-9400
▁safeguard	-9401
▁opposition	-9402
▁successfully	-9403
保存	-9404
共享	-9405
加尔	-9406
坚决	-9407
定为	-9408
突然	-9409
表面	-9410
较低	-9411
▁"4	-9412
▁最近	-9413
开展了	-9414
▁43.	-9415
歧视公约	-9416
-2005	-9417
▁film	-9418
▁load	-9419
▁defend	-9420
▁voting	-9421
▁recalls	-9422
▁deployed	-9423
▁immigration	-9424
▁interaction	-9425
▁P	-9426
被占	-9427
遣返	-9428
的世界	-9429
董事会	-9430
该项目	-9431
down	-9432
▁ham	-9433
▁shanghai	-9434
▁reaffirmed	-9435
了在	-9436
房地	-9437
扩展	-9438
都不	-9439
的挑战	-9440
inal	-9441
ores	-9442
专门机构	-9443
▁disposal	-9444
▁functional	-9445
2(	-9446
:"	-9447
▁多	-9448
人人	-9449
刺激	-9450
▁ip	-9451
举办了	-9452
zuel	-9453
粮农组织	-9454
生物多样性	-9455
encing	-9456
委员会的建议	-9457
▁turkish	-9458
件事	-9459
各类	-9460
警告	-9461
间接	-9462
bet	-9463
有责任	-9464
▁cra	-9465
联合国在	-9466
重返社会	-9467
aught	-9468
▁crop	-9469
▁daugh	-9470
▁exact	-9471
▁loans	-9472
▁machin	-9473
▁fishing	-9474
▁underst	-9475
▁directed	-9476
▁overcome	-9477
▁revolution	-9478
成效	-9479
基金的	-9480
组成的	-9481
greg	-9482
rator	-9483
▁oral	-9484
▁sens	-9485
▁tack	-9486
▁demob	-9487
▁decree	-9488
▁charged	-9489
▁finland	-9490
▁lawyers	-9491
▁pertain	-9492
▁genocide	-9493
▁relationships	-9494
SR	-9495
三分	-9496
世贸	-9497
主导	-9498
公里	-9499
处决	-9500
小学	-9501
所设	-9502
概述	-9503
海上	-9504
受害人	-9505
接受的	-9506
足够的	-9507
▁110	-9508
▁本报告	-9509
▁理事会	-9510
促进发展	-9511
先生阁下	-9512
非洲发展	-9513
▁aged	-9514
▁gaps	-9515
▁salv	-9516
▁weight	-9517
▁workpl	-9518
▁embargo	-9519
▁repatri	-9520
▁reliable	-9521
▁experienced	-9522
企图	-9523
优惠	-9524
受伤	-9525
在同	-9526
妈妈	-9527
融合	-9528
被迫	-9529
随时	-9530
▁我的	-9531
分区域	-9532
在这个	-9533
comp	-9534
▁hair	-9535
▁park	-9536
▁rang	-9537
▁toward	-9538
▁lasting	-9539
▁married	-9540
▁venezuel	-9541
中华	-9542
入学	-9543
物资	-9544
质疑	-9545
ils	-9546
book	-9547
coun	-9548
licit	-9549
▁fees	-9550
▁huge	-9551
▁prog	-9552
▁diver	-9553
▁indian	-9554
▁borders	-9555
▁residents	-9556
▁constitutes	-9557
▁representing	-9558
利润	-9559
可行	-9560
国外	-9561
沟通	-9562
领取	-9563
▁有些	-9564
dden	-9565
▁300	-9566
▁fat	-9567
▁kid	-9568
▁mou	-9569
获得通过	-9570
irect	-9571
▁push	-9572
▁symb	-9573
▁posed	-9574
▁foster	-9575
▁kazakh	-9576
▁topics	-9577
▁picture	-9578
▁convinced	-9579
▁administer	-9580
▁certificate	-9581
oh	-9582
发动	-9583
学会	-9584
客观	-9585
残忍	-9586
成员的	-9587
方面所	-9588
的危险	-9589
▁45.	-9590
▁mos	-9591
▁camps	-9592
▁danger	-9593
本报告所述期间	-9594
▁displace	-9595
▁similarly	-9596
▁invitation	-9597
▁五	-9598
▁向	-9599
元首	-9600
出去	-9601
回来	-9602
季度	-9603
和教育	-9604
稳定团	-9605
▁fun	-9606
▁mrs	-9607
委员会对	-9608
▁died	-9609
▁fraud	-9610
▁juven	-9611
▁myself	-9612
▁unlike	-9613
▁yester	-9614
▁dischar	-9615
▁maternal	-9616
▁modalities	-9617
免疫	-9618
名的	-9619
极其	-9620
跟踪	-9621
辱人	-9622
遗产	-9623
阅读	-9624
iro	-9625
▁世界	-9626
▁首先	-9627
和工作	-9628
特遣队	-9629
olon	-9630
▁41.	-9631
▁42.	-9632
越来越多	-9633
遗憾的是	-9634
▁scen	-9635
▁block	-9636
unction	-9637
▁dynamic	-9638
▁competence	-9639
▁equivalent	-9640
oo	-9641
了该	-9642
产妇	-9643
多次	-9644
高于	-9645
orm	-9646
以加强	-9647
反腐败	-9648
受影响	-9649
和使用	-9650
emen	-9651
专门知识	-9652
istence	-9653
▁calling	-9654
▁allowing	-9655
▁promoted	-9656
公民权利和政治权利	-9657
▁completely	-9658
▁inadequate	-9659
▁presidency	-9660
▁intolerance	-9661
3(	-9662
合适	-9663
接收	-9664
支援	-9665
灾难	-9666
的机构	-9667
▁ber	-9668
▁din	-9669
▁elig	-9670
▁wild	-9671
▁newly	-9672
▁cultiv	-9673
iversity	-9674
▁broader	-9675
▁succeed	-9676
作品	-9677
再生	-9678
处境	-9679
海外	-9680
国际法院	-9681
overed	-9682
▁ordinary	-9683
▁yesterday	-9684
▁properties	-9685
会谈	-9686
把它	-9687
文明	-9688
缓解	-9689
▁87	-9690
▁xx	-9691
和政策	-9692
并通过	-9693
并鼓励	-9694
日举行	-9695
rupt	-9696
▁pas	-9697
▁sin	-9698
▁注意到	-9699
直接投资	-9700
▁cance	-9701
▁macro	-9702
▁prejud	-9703
社会和文化权利	-9704
也将	-9705
祝贺	-9706
马尔	-9707
▁ox	-9708
▁在此	-9709
发了言	-9710
和相关	-9711
机制的	-9712
信息系统	-9713
刑事法院	-9714
强调指出	-9715
urred	-9716
之间的关系	-9717
▁absor	-9718
▁gather	-9719
▁listen	-9720
▁laundering	-9721
▁considerations	-9722
地域	-9723
特性	-9724
股票	-9725
uls	-9726
▁建议	-9727
使他们	-9728
发言人	-9729
的共同	-9730
经费的	-9731
▁39.	-9732
▁gar	-9733
▁mov	-9734
所规定的	-9735
▁我们认为	-9736
▁realize	-9737
▁airspace	-9738
▁barriers	-9739
▁movements	-9740
▁temperature	-9741
!"	-9742
89	-9743
周围	-9744
内罗毕	-9745
外国人	-9746
海洋法	-9747
tile	-9748
▁guy	-9749
▁tel	-9750
人类住区	-9751
条约机构	-9752
aling	-9753
itral	-9754
▁gard	-9755
▁rail	-9756
▁diagn	-9757
▁agents	-9758
▁fellow	-9759
▁league	-9760
▁composed	-9761
▁evaluate	-9762
▁substance	-9763
-1	-9764
DP	-9765
中等	-9766
忽视	-9767
看起来	-9768
itch	-9769
我们必须	-9770
提出建议	-9771
-2013	-9772
▁biod	-9773
▁urge	-9774
新伙伴关系	-9775
▁receip	-9776
▁drawing	-9777
▁legally	-9778
▁operate	-9779
▁programs	-9780
▁behaviour	-9781
▁certainly	-9782
▁degrading	-9783
▁residence	-9784
5%	-9785
一套	-9786
信号	-9787
工厂	-9788
月的	-9789
▁ah	-9790
报告和	-9791
的条款	-9792
沙特阿拉伯	-9793
▁acced	-9794
波斯尼亚和黑	-9795
▁congrat	-9796
▁adopting	-9797
▁coherence	-9798
▁guatemala	-9799
▁businesses	-9800
▁kazakhstan	-9801
他人	-9802
以法	-9803
入侵	-9804
全权	-9805
让你	-9806
设在	-9807
财富	-9808
轨道	-9809
▁fu	-9810
▁pc	-9811
▁只有	-9812
进程的	-9813
omet	-9814
发达国家的	-9815
orters	-9816
▁counse	-9817
▁hazardous	-9818
▁transfers	-9819
▁landlocked	-9820
▁cooperative	-9821
3)	-9822
gy	-9823
基因	-9824
处置	-9825
天的	-9826
级别	-9827
rap	-9828
▁然后	-9829
▁outs	-9830
▁viet	-9831
▁hotel	-9832
▁confid	-9833
▁critic	-9834
▁rapidly	-9835
▁uncitral	-9836
可是	-9837
台湾	-9838
地址	-9839
就能	-9840
杀伤	-9841
的高	-9842
说话	-9843
面积	-9844
顺利	-9845
的最佳	-9846
alle	-9847
刑事诉讼	-9848
这种情况	-9849
isons	-9850
▁genu	-9851
区域和国际	-9852
秘书长的报告	-9853
missible	-9854
▁airport	-9855
▁volunteers	-9856
▁negotiation	-9857
▁undertaking	-9858
.6	-9859
假设	-9860
照料	-9861
经社	-9862
iny	-9863
全面的	-9864
决定将	-9865
审查和	-9866
援助团	-9867
要求的	-9868
▁rad	-9869
就业机会	-9870
▁gone	-9871
ancies	-9872
▁degrad	-9873
▁leader	-9874
▁apparent	-9875
依靠	-9876
应由	-9877
我会	-9878
摊款	-9879
时限	-9880
还应	-9881
单方面	-9882
的概念	-9883
asts	-9884
▁150	-9885
▁40.	-9886
▁xen	-9887
ateful	-9888
▁kinds	-9889
▁kyoto	-9890
▁phone	-9891
▁outputs	-9892
▁applying	-9893
▁withdrawal	-9894
▁consolidated	-9895
之内	-9896
国和	-9897
干旱	-9898
违法	-9899
gue	-9900
冲突后	-9901
的核心	-9902
南南合作	-9903
外交部长	-9904
▁diss	-9905
tility	-9906
▁exhib	-9907
▁immun	-9908
▁title	-9909
▁symbol	-9910
▁manifest	-9911
▁procedural	-9912
▁facilitation	-9913
▁manufacturing	-9914
▁professionals	-9915
4)	-9916
制品	-9917
图像	-9918
旅费	-9919
bek	-9920
nit	-9921
▁而且	-9922
背景下	-9923
▁.12	-9924
▁44.	-9925
▁unr	-9926
开展工作	-9927
wards	-9928
▁thor	-9929
▁dress	-9930
▁exemp	-9931
▁zones	-9932
▁explicit	-9933
▁excessive	-9934
▁emphasizes	-9935
▁transmission	-9936
上空	-9937
告知	-9938
沿海	-9939
百万	-9940
细节	-9941
身上	-9942
Cor	-9943
while	-9944
▁unrwa	-9945
▁servic	-9946
▁claimed	-9947
▁devices	-9948
▁genuine	-9949
▁package	-9950
▁playing	-9951
▁regards	-9952
▁species	-9953
▁phenomenon	-9954
▁explanation	-9955
展示	-9956
据称	-9957
不人道	-9958
限成员	-9959
-2007	-9960
endum	-9961
inces	-9962
▁cere	-9963
▁bench	-9964
▁color	-9965
▁lanka	-9966
▁schem	-9967
▁proved	-9968
▁olympic	-9969
▁millions	-9970
▁architect	-9971
波斯尼亚和黑塞哥维那	-9972
▁washington	-9973
yc	-9974
使之	-9975
有罪	-9976
罪犯	-9977
而在	-9978
记得	-9979
iri	-9980
▁当然	-9981
反映了	-9982
oked	-9983
▁47.	-9984
ambia	-9985
▁brain	-9986
▁hopes	-9987
visaged	-9988
▁harass	-9989
▁remove	-9990
▁sudden	-9991
▁xenoph	-9992
▁decolon	-9993
▁predict	-9994
▁accessible	-9995
96	-9996
四年	-9997
怀孕	-9998
▁正如	-9999
和政府	-10000
lete	-10001
para	-10002
▁bid	-10003
▁lif	-10004
▁mun	-10005
▁spl	-10006
▁imag	-10007
▁attrac	-10008
▁desire	-10009
▁talking	-10010
▁venezuela	-10011
▁households	-10012
▁prohibited	-10013
天然	-10014
已被	-10015
我是	-10016
时刻	-10017
编辑	-10018
以上的	-10019
国务院	-10020
审查了	-10021
▁ast	-10022
给秘书长	-10023
▁flag	-10024
▁laid	-10025
▁maybe	-10026
▁mostly	-10027
倡导	-10028
左右	-10029
担忧	-10030
神经	-10031
终了	-10032
西方	-10033
骚扰	-10034
rog	-10035
uff	-10036
人口的	-10037
桑尼亚	-10038
问题是	-10039
▁tub	-10040
号决议中	-10041
各代表团	-10042
oting	-10043
▁evol	-10044
▁skin	-10045
▁covers	-10046
▁stages	-10047
▁deposit	-10048
▁display	-10049
▁granting	-10050
▁happened	-10051
▁producing	-10052
▁excellency	-10053
▁expressing	-10054
▁commodities	-10055
1:	-10056
XX	-10057
▁小	-10058
倾向	-10059
吉尔	-10060
大力	-10061
守则	-10062
宝贵	-10063
废除	-10064
查阅	-10065
能否	-10066
在全球	-10067
技术的	-10068
的协调	-10069
坦桑尼亚	-10070
andum	-10071
oured	-10072
▁isol	-10073
▁pleas	-10074
▁slight	-10075
▁adviser	-10076
▁assisted	-10077
▁psychological	-10078
▁>	-10079
下面	-10080
债权	-10081
将由	-10082
届会	-10083
巴马	-10084
该项	-10085
rah	-10086
▁ba	-10087
的人员	-10088
▁hyp	-10089
国家一级	-10090
药物管制	-10091
▁club	-10092
限成员名额	-10093
▁cells	-10094
▁incomp	-10095
▁diversi	-10096
▁municipal	-10097
▁memorandum	-10098
区分	-10099
时至	-10100
流程	-10101
纪律	-10102
订立	-10103
首要	-10104
提交给	-10105
项目厅	-10106
统计数据	-10107
缔约国在	-10108
▁orders	-10109
▁devoted	-10110
▁organize	-10111
▁projected	-10112
87	-10113
DA	-10114
从未	-10115
照片	-10116
谈会	-10117
kes	-10118
产品的	-10119
已成为	-10120
▁tob	-10121
采取一切	-10122
▁drew	-10123
▁announce	-10124
▁medicine	-10125
▁machinery	-10126
▁scientists	-10127
▁understood	-10128
▁degradation	-10129
▁journalists	-10130
▁telecommunic	-10131
咖啡	-10132
女儿	-10133
将对	-10134
没收	-10135
病人	-10136
结盟	-10137
mun	-10138
ulf	-10139
▁ut	-10140
能够在	-10141
轻武器	-10142
udes	-10143
提供关于	-10144
udget	-10145
water	-10146
▁pool	-10147
▁admit	-10148
▁recur	-10149
▁spect	-10150
▁refers	-10151
▁removal	-10152
▁properly	-10153
▁fisheries	-10154
▁incorporated	-10155
不妨	-10156
净额	-10157
电力	-10158
认定	-10159
负面	-10160
活动和	-10161
各会员国	-10162
▁gene	-10163
▁glass	-10164
▁complic	-10165
▁liberty	-10166
▁dedicated	-10167
▁qualified	-10168
▁consultants	-10169
▁acknowledged	-10170
▁decolonization	-10171
fp	-10172
丧失	-10173
对我	-10174
尝试	-10175
的确	-10176
种种	-10177
过度	-10178
过来	-10179
份报告	-10180
出现了	-10181
萨尔瓦	-10182
spap	-10183
▁48.	-10184
▁fill	-10185
贸易和发展	-10186
cribed	-10187
▁herit	-10188
▁hydro	-10189
▁imper	-10190
▁tibet	-10191
▁memory	-10192
▁relate	-10193
▁coastal	-10194
▁frequently	-10195
▁determining	-10196
▁researchers	-10197
no	-10198
必需	-10199
行事	-10200
首长	-10201
▁82	-10202
各组织	-10203
的教育	-10204
pper	-10205
teed	-10206
▁46.	-10207
itals	-10208
itive	-10209
▁conj	-10210
atever	-10211
▁impos	-10212
▁greece	-10213
▁possess	-10214
▁integrate	-10215
▁sovereign	-10216
▁acceptable	-10217
▁transaction	-10218
▁displacement	-10219
吸收	-10220
提起	-10221
最多	-10222
表格	-10223
谢谢	-10224
▁84	-10225
减少了	-10226
的人民	-10227
▁vast	-10228
提出的建议	-10229
▁style	-10230
▁remedy	-10231
▁suffer	-10232
▁newspap	-10233
▁compound	-10234
▁generate	-10235
▁autonomous	-10236
))	-10237
不起	-10238
个别	-10239
好像	-10240
暂时	-10241
气象	-10242
▁日本	-10243
以便在	-10244
经济的	-10245
能力的	-10246
造成了	-10247
▁lie	-10248
osite	-10249
▁elev	-10250
▁ratio	-10251
▁sharp	-10252
▁hunger	-10253
▁banking	-10254
▁becomes	-10255
▁smaller	-10256
▁presents	-10257
▁circulated	-10258
▁formulated	-10259
▁guaranteed	-10260
人权事务高级专员办事处	-10261
▁electricity	-10262
97	-10263
临床	-10264
差别	-10265
生的	-10266
的水	-10267
绿色	-10268
违背	-10269
领袖	-10270
饥饿	-10271
mon	-10272
▁92	-10273
▁97	-10274
和法律	-10275
提交了	-10276
第二个	-10277
▁tang	-10278
京都议定书	-10279
妇女和儿童	-10280
委员会的工作	-10281
urities	-10282
▁deaths	-10283
▁motion	-10284
▁appeared	-10285
▁reserves	-10286
iy	-10287
年前	-10288
个人的	-10289
是一项	-10290
▁lau	-10291
届会议的	-10292
民主主义	-10293
▁moon	-10294
大规模毁灭	-10295
▁begun	-10296
▁monit	-10297
▁stood	-10298
▁injury	-10299
▁poland	-10300
▁retire	-10301
难民专员办事处	-10302
▁subpara	-10303
▁surveys	-10304
▁biennial	-10305
▁conclude	-10306
▁heritage	-10307
▁indirect	-10308
▁requiring	-10309
信心	-10310
做到	-10311
判断	-10312
名称	-10313
普及	-10314
都能	-10315
鼓舞	-10316
▁他还	-10317
▁还有	-10318
▁via	-10319
罗马尼亚	-10320
▁accel	-10321
▁lived	-10322
▁crises	-10323
▁ombuds	-10324
▁financed	-10325
▁dependent	-10326
▁regardless	-10327
▁arrangement	-10328
人为	-10329
盛顿	-10330
绩效	-10331
在这些	-10332
性剥削	-10333
目标的	-10334
社会的	-10335
积极的	-10336
kind	-10337
obia	-10338
▁sbi	-10339
附属机构	-10340
▁abst	-10341
▁heat	-10342
▁brand	-10343
▁lists	-10344
▁interd	-10345
▁aviation	-10346
▁exposure	-10347
▁whatever	-10348
▁customers	-10349
▁signature	-10350
关联	-10351
和多	-10352
回收	-10353
对外	-10354
常会	-10355
效应	-10356
来到	-10357
疑问	-10358
des	-10359
和政治	-10360
尼加拉	-10361
捐助方	-10362
omic	-10363
业务活动	-10364
农村地区	-10365
消除贫穷	-10366
▁wage	-10367
▁shipp	-10368
▁orient	-10369
▁violent	-10370
▁reviewing	-10371
▁biodiversity	-10372
(1	-10373
CP	-10374
EP	-10375
杀害	-10376
检验	-10377
让人	-10378
▁81	-10379
▁结果	-10380
因为它	-10381
会议大楼	-10382
尼加拉瓜	-10383
▁symp	-10384
捷克共和国	-10385
▁strip	-10386
▁tests	-10387
▁copies	-10388
促成	-10389
信通	-10390
均衡	-10391
年后	-10392
持有	-10393
联刚	-10394
告诉我	-10395
工作者	-10396
经济体	-10397
▁grateful	-10398
▁offering	-10399
▁overseas	-10400
▁demonstrate	-10401
▁submissions	-10402
医学	-10403
ste	-10404
引起的	-10405
▁jam	-10406
北爱尔兰	-10407
阿拉伯国家	-10408
▁forums	-10409
▁aligned	-10410
▁belgium	-10411
▁aggression	-10412
也门	-10413
冻结	-10414
利率	-10415
有点	-10416
外交部	-10417
目标和	-10418
▁chad	-10419
▁twel	-10420
▁elder	-10421
▁firms	-10422
▁treas	-10423
▁wants	-10424
▁missing	-10425
▁customary	-10426
▁reimburse	-10427
▁tolerance	-10428
▁adjustments	-10429
行政和预算问题咨询委员会	-10430
lb	-10431
中学	-10432
了他	-10433
在他	-10434
实例	-10435
库存	-10436
ago	-10437
建设性	-10438
的地区	-10439
的最后	-10440
负责人	-10441
emic	-10442
有限公司	-10443
▁bush	-10444
▁决议草案	-10445
▁bottom	-10446
▁extrab	-10447
udgetary	-10448
▁duration	-10449
▁significance	-10450
▁extrabudgetary	-10451
所属	-10452
斯达	-10453
追求	-10454
sta	-10455
一部分	-10456
充分的	-10457
teen	-10458
zing	-10459
▁bomb	-10460
▁gonna	-10461
ourable	-10462
▁plants	-10463
▁accident	-10464
▁alliance	-10465
▁managing	-10466
▁exchanges	-10467
▁provinces	-10468
▁flexibility	-10469
.7	-10470
za	-10471
▁您	-10472
塞内	-10473
思考	-10474
情绪	-10475
法和	-10476
草坪	-10477
▁有人	-10478
的个人	-10479
内部监督	-10480
生产总值	-10481
uries	-10482
▁roll	-10483
反恐怖主义	-10484
▁attract	-10485
▁handling	-10486
▁patterns	-10487
▁reportedly	-10488
上去	-10489
之二	-10490
从来	-10491
全力	-10492
团队	-10493
国别	-10494
放射	-10495
敌对	-10496
核定	-10497
武力	-10498
种植	-10499
穆斯	-10500
简报	-10501
领空	-10502
使我们	-10503
美元的	-10504
reek	-10505
补救办法	-10506
▁crow	-10507
在国家一级	-10508
▁fruit	-10509
朝鲜民主主义	-10510
▁powerful	-10511
▁negotiating	-10512
ny	-10513
响应	-10514
就要	-10515
辅助	-10516
ani	-10517
人居署	-10518
必要时	-10519
的结论	-10520
及太平洋	-10521
塞内加尔	-10522
对联合国	-10523
男女平等	-10524
▁song	-10525
进一步加强	-10526
▁motiv	-10527
▁spend	-10528
▁arabia	-10529
▁acceler	-10530
▁precise	-10531
▁waiting	-10532
▁rejected	-10533
▁accountable	-10534
▁extradition	-10535
▁到	-10536
禁毒	-10537
见到	-10538
▁第五	-10539
▁非洲	-10540
发生在	-10541
的全面	-10542
还需要	-10543
real	-10544
▁gun	-10545
玻利维亚	-10546
▁lose	-10547
▁redep	-10548
▁bridge	-10549
▁integral	-10550
▁commended	-10551
朝鲜民主主义人民共和国	-10552
▁supplementary	-10553
公报	-10554
动员	-10555
或在	-10556
邻国	-10557
ecd	-10558
ips	-10559
派遣国	-10560
的服务	-10561
美国的	-10562
veli	-10563
世界人权	-10564
暴力侵害妇女	-10565
▁filled	-10566
▁schemes	-10567
▁distance	-10568
▁thorough	-10569
▁marketing	-10570
▁measurement	-10571
83	-10572
一段	-10573
定罪	-10574
算法	-10575
华盛顿	-10576
岁以下	-10577
的形式	-10578
预算外	-10579
▁crc	-10580
acted	-10581
▁lands	-10582
▁wound	-10583
关切地注意到	-10584
▁arrived	-10585
▁dismiss	-10586
▁G	-10587
他是	-10588
匈牙	-10589
单元	-10590
夫人	-10591
膨胀	-10592
umn	-10593
穆斯林	-10594
的缔约国	-10595
▁barb	-10596
救济工程处	-10597
▁remar	-10598
▁sorry	-10599
▁borrow	-10600
▁invite	-10601
▁stronger	-10602
▁accession	-10603
▁belonging	-10604
▁formation	-10605
▁consolidation	-10606
ko	-10607
不管	-10608
分离	-10609
发电	-10610
同等	-10611
哈马	-10612
匈牙利	-10613
条草案	-10614
相当于	-10615
▁500	-10616
可持续性	-10617
▁baby	-10618
aneous	-10619
▁sport	-10620
▁yield	-10621
▁秘书长关于	-10622
▁forget	-10623
▁subparagraph	-10624
mm	-10625
先进	-10626
含有	-10627
无线	-10628
用以	-10629
观测	-10630
认证	-10631
▁93	-10632
和行政	-10633
时间表	-10634
的歧视	-10635
的组织	-10636
vest	-10637
▁工作组	-10638
人权问题	-10639
咨询服务	-10640
cepts	-10641
▁fran	-10642
▁rape	-10643
▁sand	-10644
▁flood	-10645
▁stere	-10646
▁grants	-10647
▁resistance	-10648
▁responding	-10649
CR	-10650
不列	-10651
填补	-10652
海事	-10653
的非	-10654
罗姆	-10655
陷入	-10656
ull	-10657
▁83	-10658
▁全球	-10659
在这里	-10660
atar	-10661
▁pip	-10662
作出贡献	-10663
▁viii	-10664
方面的作用	-10665
▁closer	-10666
▁wonder	-10667
消除对妇女一切形式	-10668
▁persistent	-10669
/4	-10670
份额	-10671
处的	-10672
形象	-10673
很有	-10674
.1)	-10675
▁86	-10676
不符合	-10677
宣言和	-10678
新加坡	-10679
▁50.	-10680
财政资源	-10681
▁corr	-10682
▁sort	-10683
▁tanz	-10684
议事规则第	-10685
▁piece	-10686
▁define	-10687
▁instit	-10688
▁liveli	-10689
▁denmark	-10690
▁customer	-10691
▁flexible	-10692
▁registry	-10693
▁impossible	-10694
▁livelihood	-10695
去了	-10696
家属	-10697
日子	-10698
条的	-10699
12)	-10700
传统的	-10701
关系的	-10702
工作中	-10703
生产和	-10704
大韩民国	-10705
▁alban	-10706
▁meant	-10707
▁shape	-10708
近东救济工程处	-10709
▁paralle	-10710
▁interior	-10711
▁professor	-10712
▁mitigation	-10713
▁alternatives	-10714
fa	-10715
信用	-10716
冲击	-10717
庆祝	-10718
施加	-10719
等等	-10720
阿布	-10721
你可以	-10722
关于在	-10723
殖民化	-10724
确定了	-10725
建立信任	-10726
萨尔瓦多	-10727
▁neut	-10728
武器和轻武器	-10729
▁feeling	-10730
▁harassment	-10731
▁neighbouring	-10732
另有	-10733
温室	-10734
电信	-10735
移交	-10736
纳米	-10737
那种	-10738
性意见	-10739
达成的	-10740
还可以	-10741
▁dav	-10742
▁考虑到	-10743
提供资金	-10744
生殖健康	-10745
▁store	-10746
亚洲及太平洋	-10747
▁beings	-10748
人权和基本自由	-10749
▁pertaining	-10750
地下	-10751
网页	-10752
▁tv	-10753
在我们	-10754
红十字	-10755
计划和	-10756
▁ven	-10757
工作地点	-10758
普遍定期	-10759
解决方案	-10760
orest	-10761
▁mich	-10762
▁root	-10763
▁sick	-10764
▁delays	-10765
▁detect	-10766
▁ethics	-10767
▁flight	-10768
▁narrow	-10769
▁unders	-10770
▁armenia	-10771
▁combination	-10772
▁巴	-10773
仇外	-10774
和可	-10775
打开	-10776
明天	-10777
消极	-10778
赢得	-10779
阐明	-10780
顾客	-10781
▁加强	-10782
年轻人	-10783
批准了	-10784
文件的	-10785
老年人	-10786
▁van	-10787
▁resc	-10788
▁roma	-10789
▁guided	-10790
▁marked	-10791
▁applies	-10792
▁excellent	-10793
▁expanding	-10794
▁intensify	-10795
▁continuation	-10796
▁notification	-10797
▁@	-10798
增编	-10799
委托	-10800
薪酬	-10801
ole	-10802
不列颠	-10803
区域的	-10804
更多地	-10805
的价值	-10806
该决议	-10807
▁bag	-10808
▁loan	-10809
▁rome	-10810
entials	-10811
trepreneurs	-10812
▁palestinians	-10813
习俗	-10814
多哈	-10815
纠正	-10816
分析了	-10817
哥斯达	-10818
很大的	-10819
战略和	-10820
有许多	-10821
标准的	-10822
ault	-10823
zone	-10824
哥斯达黎	-10825
委员会还	-10826
社会保障	-10827
acing	-10828
的一个重要	-10829
▁costa	-10830
▁sbsta	-10831
titudes	-10832
▁device	-10833
▁driven	-10834
▁detainees	-10835
▁adequately	-10836
▁separation	-10837
▁progressive	-10838
▁classification	-10839
84	-10840
全民	-10841
十八	-10842
句话	-10843
地面	-10844
德里	-10845
uct	-10846
分析和	-10847
卡塔尔	-10848
巴尼亚	-10849
贸易和	-10850
▁53.	-10851
usion	-10852
▁ligh	-10853
▁与此同时	-10854
哥斯达黎加	-10855
问题工作组	-10856
外国直接投资	-10857
▁county	-10858
▁stockp	-10859
▁revital	-10860
▁unfortun	-10861
咨商	-10862
因特	-10863
地图	-10864
某个	-10865
与国际	-10866
段所述	-10867
cture	-10868
▁doha	-10869
▁vent	-10870
▁denied	-10871
▁termin	-10872
▁wastes	-10873
▁depends	-10874
▁carefully	-10875
2)	-10876
ga	-10877
关税	-10878
器的	-10879
抗议	-10880
报纸	-10881
次数	-10882
留在	-10883
经合	-10884
页次	-10885
见附件	-10886
arag	-10887
▁49.	-10888
▁isn	-10889
表示欢迎	-10890
▁catch	-10891
▁holid	-10892
▁trees	-10893
▁comprom	-10894
▁surround	-10895
▁nutrition	-10896
▁instructions	-10897
df	-10898
办理	-10899
是我	-10900
税收	-10901
dor	-10902
tin	-10903
▁ts	-10904
号和第	-10905
工作和	-10906
的政府	-10907
程序和	-10908
或有辱人	-10909
▁diam	-10910
utable	-10911
▁chris	-10912
▁ghana	-10913
▁greek	-10914
▁houses	-10915
▁receipt	-10916
▁opinions	-10917
▁universi	-10918
▁meanwhile	-10919
▁xenophobia	-10920
会晤	-10921
名字	-10922
月底	-10923
机械	-10924
杂志	-10925
韩国	-10926
教育的	-10927
rets	-10928
▁pes	-10929
协调一致	-10930
解除武装	-10931
▁epid	-10932
▁sund	-10933
不限成员名额	-10934
▁shares	-10935
▁waters	-10936
大规模毁灭性武器	-10937
▁consumers	-10938
▁demobilization	-10939
▁transformation	-10940
乌兹	-10941
入境	-10942
删除	-10943
发送	-10944
同事	-10945
根源	-10946
11.	-10947
▁你们	-10948
▁香港	-10949
和文化	-10950
egal	-10951
rich	-10952
▁61.	-10953
进行调查	-10954
sibly	-10955
▁,200	-10956
▁aband	-10957
▁franc	-10958
▁hence	-10959
▁organic	-10960
▁universities	-10961
消除对妇女一切形式歧视公约	-10962
In	-10963
上面	-10964
招募	-10965
用作	-10966
航天	-10967
船舶	-10968
过的	-10969
▁uz	-10970
乌兹别	-10971
水资源	-10972
一届会议	-10973
提供有关	-10974
管理人员	-10975
▁fash	-10976
▁unac	-10977
▁urug	-10978
......	-10979
▁guiding	-10980
▁mineral	-10981
▁policym	-10982
▁uruguay	-10983
▁regarded	-10984
▁sectoral	-10985
▁tanzania	-10986
▁collected	-10987
▁defenders	-10988
巡逻	-10989
走了	-10990
追究	-10991
铁路	-10992
ema	-10993
▁dp	-10994
▁欧洲	-10995
▁过去	-10996
▁重申	-10997
的家庭	-10998
裁谈会	-10999
部分第	-11000
常规武器	-11001
提供资料	-11002
货币基金	-11003
▁tail	-11004
中非共和国	-11005
▁proof	-11006
▁serbia	-11007
▁derived	-11008
▁harmful	-11009
▁amounted	-11010
▁distingu	-11011
▁issuance	-11012
▁broadcast	-11013
▁decentral	-11014
▁gradually	-11015
回家	-11016
条文	-11017
查询	-11018
标题	-11019
港口	-11020
简化	-11021
进度	-11022
lex	-11023
每个人	-11024
的数量	-11025
▁55.	-11026
▁dup	-11027
主管部门	-11028
性别问题	-11029
▁trip	-11030
粮食计划署	-11031
▁yemen	-11032
▁animals	-11033
▁drinking	-11034
▁ombudsman	-11035
▁comparative	-11036
▁introducing	-11037
▁liabilities	-11038
乍得	-11039
制约	-11040
参照	-11041
并就	-11042
普查	-11043
生计	-11044
麦隆	-11045
800	-11046
aba	-11047
▁88	-11048
就必须	-11049
示范法	-11050
rage	-11051
▁54.	-11052
▁vig	-11053
class	-11054
ulsion	-11055
▁solve	-11056
▁deemed	-11057
▁explosive	-11058
▁frequency	-11059
▁parameters	-11060
克斯	-11061
印刷	-11062
摆脱	-11063
直至	-11064
答案	-11065
高效	-11066
iar	-11067
出席了	-11068
喀麦隆	-11069
完成了	-11070
▁963	-11071
▁abd	-11072
▁que	-11073
独立专家	-11074
orter	-11075
▁1986	-11076
ension	-11077
▁adult	-11078
▁favor	-11079
▁accred	-11080
▁defense	-11081
▁diamond	-11082
▁claimant	-11083
▁salvador	-11084
▁subjects	-11085
▁interactive	-11086
-0	-11087
你会	-11088
疟疾	-11089
统治	-11090
而非	-11091
120	-11092
我们将	-11093
的威胁	-11094
1000	-11095
▁112	-11096
▁bon	-11097
将有助于	-11098
职权范围	-11099
▁mong	-11100
▁tunisia	-11101
▁vacancy	-11102
▁attempts	-11103
▁portugal	-11104
▁providers	-11105
▁servicing	-11106
▁possession	-11107
到达	-11108
南方	-11109
口译	-11110
地说	-11111
学科	-11112
对付	-11113
封锁	-11114
更改	-11115
款的	-11116
sen	-11117
具体的	-11118
奥巴马	-11119
▁lux	-11120
三届会议	-11121
被占领土	-11122
▁band	-11123
▁mali	-11124
▁yuan	-11125
提交的报告	-11126
rations	-11127
▁senegal	-11128
▁citizenship	-11129
一贯	-11130
不了	-11131
支柱	-11132
绑架	-11133
▁xi	-11134
实验室	-11135
并加强	-11136
inct	-11137
▁gri	-11138
▁pot	-11139
举行会议	-11140
人口贩运	-11141
阿尔巴尼亚	-11142
▁finds	-11143
▁capable	-11144
公共部门会计准则	-11145
ifications	-11146
▁capability	-11147
▁credentials	-11148
优化	-11149
内政	-11150
温度	-11151
节省	-11152
辐射	-11153
近期	-11154
/12	-11155
▁91	-11156
▁它还	-11157
▁执行	-11158
侧重于	-11159
条约的	-11160
▁115	-11161
▁56.	-11162
信通技术	-11163
所提供的	-11164
提供支持	-11165
▁forg	-11166
▁fort	-11167
▁mouth	-11168
人力资源管理	-11169
赞赏地注意到	-11170
▁select	-11171
▁clinical	-11172
▁coherent	-11173
▁concepts	-11174
▁contacts	-11175
▁stereoty	-11176
▁generated	-11177
▁prospects	-11178
▁requesting	-11179
86	-11180
上涨	-11181
会费	-11182
判处	-11183
坐在	-11184
相似	-11185
贝尔	-11186
rem	-11187
企业的	-11188
合理的	-11189
重点是	-11190
世贸组织	-11191
了一系列	-11192
必要措施	-11193
提高认识	-11194
▁hang	-11195
▁misc	-11196
▁oecd	-11197
至关重要的	-11198
▁animal	-11199
▁citizen	-11200
▁accurate	-11201
▁analytical	-11202
▁evaluations	-11203
公民权利和政治权利国际公约	-11204
(《	-11205
不安	-11206
书记	-11207
分为	-11208
吉斯	-11209
家里	-11210
本人	-11211
格兰	-11212
禁运	-11213
美丽	-11214
下一个	-11215
北草坪	-11216
监察员	-11217
获得了	-11218
tili	-11219
▁tic	-11220
▁tom	-11221
七届会议	-11222
gorith	-11223
▁musli	-11224
▁seeks	-11225
▁aspect	-11226
ructuring	-11227
▁daughter	-11228
▁instances	-11229
▁comparison	-11230
▁facilitated	-11231
▁repatriation	-11232
IS	-11233
ić	-11234
人事	-11235
人身	-11236
会有	-11237
停火	-11238
判例	-11239
各位	-11240
国会	-11241
对策	-11242
现已	-11243
运营	-11244
不容忍	-11245
多样化	-11246
态发展	-11247
成功地	-11248
的参与	-11249
继续在	-11250
条的规定	-11251
迫切需要	-11252
eland	-11253
orted	-11254
▁arti	-11255
▁lies	-11256
iaries	-11257
▁ammun	-11258
▁repair	-11259
▁algorith	-11260
▁literacy	-11261
▁renewable	-11262
▁conjunction	-11263
▁exploration	-11264
▁restructuring	-11265
传真	-11266
关押	-11267
它在	-11268
当中	-11269
想到	-11270
想象	-11271
能在	-11272
选民	-11273
ino	-11274
▁特别	-11275
和人权	-11276
旅游业	-11277
根据其	-11278
索赔人	-11279
该报告	-11280
ners	-11281
▁51.	-11282
▁emo	-11283
▁rio	-11284
提供服务	-11285
委员会认为	-11286
▁unlaw	-11287
▁renewed	-11288
▁parallel	-11289
将使	-11290
意外	-11291
由此	-11292
站在	-11293
铭记	-11294
/13	-11295
/25	-11296
规划和	-11297
Corr	-11298
▁tor	-11299
金融危机	-11300
▁uzbek	-11301
▁sister	-11302
▁smooth	-11303
▁custody	-11304
▁interpre	-11305
▁atmosphere	-11306
▁restricted	-11307
▁securities	-11308
▁forthcoming	-11309
95	-11310
ji	-11311
仔细	-11312
作者	-11313
意图	-11314
蒙古	-11315
谈到	-11316
转交	-11317
oms	-11318
▁lt	-11319
个员额	-11320
同样的	-11321
的变化	-11322
的计划	-11323
都必须	-11324
ales	-11325
well	-11326
▁.11	-11327
▁ips	-11328
▁thin	-11329
holder	-11330
▁agent	-11331
▁insec	-11332
▁preval	-11333
▁struggle	-11334
▁anticipated	-11335
cp	-11336
▁除	-11337
你在	-11338
列出	-11339
记忆	-11340
isp	-11341
和程序	-11342
最好的	-11343
有关的问题	-11344
筹备委员会	-11345
atible	-11346
▁couple	-11347
▁spokes	-11348
▁tables	-11349
▁ancient	-11350
▁driving	-11351
▁operative	-11352
其余	-11353
富有	-11354
布什	-11355
布尔	-11356
并请	-11357
缓慢	-11358
sis	-11359
▁sac	-11360
▁sky	-11361
任何其他	-11362
迄今为止	-11363
▁schol	-11364
▁aftern	-11365
▁libyan	-11366
▁compuls	-11367
▁judgement	-11368
▁description	-11369
ES	-11370
以使	-11371
友好	-11372
自主	-11373
资讯	-11374
这两	-11375
▁,5	-11376
▁我要	-11377
乌拉圭	-11378
▁jun	-11379
社会经济	-11380
(2005	-11381
▁acid	-11382
▁feet	-11383
国家工作队	-11384
incial	-11385
▁smugg	-11386
▁estate	-11387
▁seized	-11388
tilities	-11389
▁closure	-11390
▁malaria	-11391
▁reaction	-11392
▁afternoon	-11393
▁contractual	-11394
▁accommodation	-11395
▁harmonization	-11396
一词	-11397
保安	-11398
和有	-11399
圆桌	-11400
席位	-11401
年初	-11402
物理	-11403
的有	-11404
963	-11405
pes	-11406
▁da	-11407
▁目录	-11408
以支持	-11409
任何人	-11410
定居点	-11411
斯洛伐	-11412
▁52.	-11413
全权证书	-11414
-2003	-11415
▁,400	-11416
我国代表团	-11417
▁filed	-11418
跨国有组织犯罪	-11419
▁necessity	-11420
▁compulsory	-11421
▁underlying	-11422
oa	-11423
tm	-11424
中亚	-11425
刚刚	-11426
大气	-11427
征求	-11428
撤销	-11429
ode	-11430
▁94	-11431
为执行	-11432
登记册	-11433
的实际	-11434
的请求	-11435
的预算	-11436
长时间	-11437
人权机构	-11438
可以通过	-11439
国家警察	-11440
审议大会	-11441
斯洛伐克	-11442
的目的是	-11443
表示关注	-11444
▁zero	-11445
ishing	-11446
▁inputs	-11447
▁lawyer	-11448
中华人民共和国	-11449
▁nicarag	-11450
▁juvenile	-11451
▁dimensions	-11452
▁experiment	-11453
▁reflecting	-11454
▁constituted	-11455
cd	-11456
改造	-11457
梦想	-11458
福祉	-11459
迹象	-11460
urb	-11461
▁妇女	-11462
的暴力	-11463
▁ice	-11464
咨询机构	-11465
宏观经济	-11466
▁mode	-11467
▁accum	-11468
▁false	-11469
▁toxic	-11470
乌兹别克斯坦	-11471
普遍定期审议	-11472
▁happen	-11473
▁replaced	-11474
▁suggests	-11475
▁provincial	-11476
▁transmitting	-11477
’’	-11478
下放	-11479
发行	-11480
尔多	-11481
本地	-11482
机遇	-11483
见第	-11484
对所有	-11485
已经在	-11486
非洲的	-11487
▁59.	-11488
▁mont	-11489
▁freely	-11490
▁notably	-11491
▁prisons	-11492
▁employers	-11493
▁incorporate	-11494
▁administering	-11495
住宅	-11496
作物	-11497
子的	-11498
报酬	-11499
毫不	-11500
紧迫	-11501
▁印度	-11502
项目标	-11503
fall	-11504
▁fax	-11505
▁kar	-11506
国家安全	-11507
自治领土	-11508
▁refe	-11509
经费的筹措	-11510
小武器和轻武器	-11511
▁adolesc	-11512
▁drought	-11513
▁inquiry	-11514
▁addendum	-11515
▁assessing	-11516
▁continent	-11517
▁replacement	-11518
vironmentally	-11519
尽早	-11520
电台	-11521
配偶	-11522
▁96	-11523
加利亚	-11524
受教育	-11525
当事方	-11526
是通过	-11527
案件的	-11528
ario	-11529
▁58.	-11530
▁,600	-11531
lements	-11532
▁privile	-11533
▁removed	-11534
▁whereas	-11535
**	-11536
93	-11537
一方	-11538
利息	-11539
国王	-11540
臭氧	-11541
ova	-11542
复杂的	-11543
重大的	-11544
1989	-11545
有关国家	-11546
utory	-11547
▁suit	-11548
协调委员会	-11549
北草坪会议大楼	-11550
▁elderly	-11551
▁mothers	-11552
▁speaker	-11553
▁acquired	-11554
▁linkages	-11555
加紧	-11556
权威	-11557
维尔	-11558
▁欢迎	-11559
现代化	-11560
补助金	-11561
▁rou	-11562
▁stem	-11563
▁veget	-11564
▁duplic	-11565
▁exists	-11566
▁clarify	-11567
▁injured	-11568
▁secured	-11569
▁detection	-11570
▁incentives	-11571
Sh	-11572
WG	-11573
一半	-11574
仍有	-11575
代价	-11576
公园	-11577
分歧	-11578
塔吉	-11579
权益	-11580
添加	-11581
要在	-11582
论文	-11583
这场	-11584
通货	-11585
那儿	-11586
里面	-11587
雇佣	-11588
面向	-11589
驳回	-11590
ael	-11591
主席的	-11592
原则和	-11593
捐助国	-11594
法院的	-11595
▁cup	-11596
不列颠及	-11597
保加利亚	-11598
▁coff	-11599
▁desk	-11600
▁pick	-11601
▁quot	-11602
常驻代表团	-11603
ensity	-11604
▁obama	-11605
▁twice	-11606
▁oceans	-11607
▁biggest	-11608
▁fashion	-11609
▁politics	-11610
▁evolution	-11611
▁formulate	-11612
▁inequality	-11613
▁organizing	-11614
前的	-11615
将与	-11616
西藏	-11617
/14	-11618
iet	-11619
主要的	-11620
成功的	-11621
该方案	-11622
▁fee	-11623
▁nlb	-11624
▁rub	-11625
指导方针	-11626
▁http	-11627
▁lift	-11628
▁lith	-11629
▁plus	-11630
谅解备忘录	-11631
▁boost	-11632
▁grade	-11633
▁ipsas	-11634
▁ageing	-11635
▁merely	-11636
▁pursued	-11637
hancement	-11638
▁balances	-11639
▁resolved	-11640
▁conscious	-11641
▁tribunals	-11642
▁accompanied	-11643
也可	-11644
列为	-11645
剩余	-11646
手机	-11647
承受	-11648
是从	-11649
更有	-11650
犹太	-11651
矛盾	-11652
示威	-11653
里约	-11654
为实现	-11655
做出了	-11656
全系统	-11657
的保护	-11658
组织在	-11659
资源和	-11660
esty	-11661
保健服务	-11662
区域合作	-11663
▁inhab	-11664
▁plays	-11665
▁saint	-11666
▁ordered	-11667
不列颠及北爱尔兰	-11668
给安全理事会主席	-11669
▁invasion	-11670
▁pregnancy	-11671
▁orientation	-11672
▁certification	-11673
.8	-11674
保密	-11675
做的	-11676
她说	-11677
支配	-11678
激励	-11679
环保	-11680
老龄	-11681
脱离	-11682
文尼亚	-11683
该地区	-11684
部队的	-11685
难民营	-11686
非公开	-11687
ican	-11688
化学武器	-11689
受害者的	-11690
工业发展	-11691
格的待遇	-11692
高等教育	-11693
▁vacc	-11694
这种情况下	-11695
(2004)	-11696
▁innoc	-11697
▁seats	-11698
▁signs	-11699
▁worry	-11700
ologies	-11701
▁firmly	-11702
▁massive	-11703
一只	-11704
俱乐	-11705
和谐	-11706
就在	-11707
民用	-11708
牙买	-11709
知情	-11710
终于	-11711
里斯	-11712
驾驶	-11713
bre	-11714
rey	-11715
是否有	-11716
标准和	-11717
的比例	-11718
法律援助	-11719
混合行动	-11720
电子邮件	-11721
anged	-11722
▁stic	-11723
斯洛文尼亚	-11724
▁conve	-11725
▁truly	-11726
▁verbal	-11727
▁closing	-11728
▁survival	-11729
▁respected	-11730
▁distinction	-11731
▁limitations	-11732
▁expectations	-11733
▁上	-11734
▁六	-11735
尔德	-11736
明的	-11737
清理	-11738
验证	-11739
▁ct	-11740
涉及到	-11741
牙买加	-11742
的性质	-11743
都没有	-11744
auri	-11745
ched	-11746
▁joy	-11747
▁wfp	-11748
自愿捐款	-11749
难民事务	-11750
right	-11751
▁bulg	-11752
▁cook	-11753
▁jama	-11754
▁drink	-11755
▁grass	-11756
▁laugh	-11757
▁client	-11758
▁occupational	-11759
:1	-11760
?”	-11761
之时	-11762
包装	-11763
土壤	-11764
暂行	-11765
留下	-11766
vak	-11767
增加到	-11768
明确的	-11769
防止和	-11770
istr	-11771
ules	-11772
提供一个	-11773
计划生育	-11774
▁rica	-11775
▁seat	-11776
▁seed	-11777
驻地协调员	-11778
▁appra	-11779
▁error	-11780
▁navig	-11781
▁annually	-11782
▁commence	-11783
▁normally	-11784
▁preserve	-11785
▁connected	-11786
▁destroyed	-11787
▁responded	-11788
▁ammunition	-11789
▁investigated	-11790
2,	-11791
》;	-11792
二十	-11793
债券	-11794
哪里	-11795
得多	-11796
收费	-11797
模拟	-11798
此项	-11799
比绍	-11800
的无	-11801
至今	-11802
较高	-11803
oma	-11804
▁各国	-11805
也就是	-11806
信息的	-11807
几个月	-11808
文化和	-11809
正确的	-11810
的成果	-11811
第四次	-11812
赞比亚	-11813
附件二	-11814
fire	-11815
▁ath	-11816
恐怖分子	-11817
该委员会	-11818
▁blow	-11819
▁shut	-11820
▁vary	-11821
▁breat	-11822
▁surpl	-11823
factory	-11824
▁inters	-11825
不人道或有辱人	-11826
▁comfort	-11827
▁earthqu	-11828
▁evening	-11829
▁falling	-11830
▁cultures	-11831
▁undermin	-11832
▁indicator	-11833
▁prosperity	-11834
互相	-11835
水和	-11836
物体	-11837
米尼	-11838
而被	-11839
ulg	-11840
▁ou	-11841
其工作	-11842
包括对	-11843
提高了	-11844
本决议	-11845
第十四	-11846
能力和	-11847
需要在	-11848
orge	-11849
▁105	-11850
▁sme	-11851
不利影响	-11852
吉尔吉斯	-11853
国际贸易	-11854
环境基金	-11855
经济合作	-11856
minent	-11857
▁adults	-11858
▁paying	-11859
▁profile	-11860
▁behavior	-11861
▁clearance	-11862
▁accelerate	-11863
▁extraordin	-11864
为何	-11865
众多	-11866
开设	-11867
引发	-11868
成人	-11869
截止	-11870
毛额	-11871
煽动	-11872
紧密	-11873
草稿	-11874
负有	-11875
加强了	-11876
1980	-11877
▁hat	-11878
▁taj	-11879
重点放在	-11880
-2015	-11881
▁tong	-11882
增进和保护	-11883
▁headed	-11884
▁divided	-11885
▁propose	-11886
▁hundreds	-11887
▁realized	-11888
▁supervis	-11889
▁terrorists	-11890
▁用	-11891
对他	-11892
幼儿	-11893
恐惧	-11894
提前	-11895
治安	-11896
波动	-11897
版本	-11898
能量	-11899
转换	-11900
远远	-11901
fol	-11902
ows	-11903
健康和	-11904
南苏丹	-11905
我认为	-11906
接受了	-11907
提到的	-11908
责任的	-11909
▁amp	-11910
▁iron	-11911
▁snow	-11912
▁tari	-11913
结论性意见	-11914
该决议草案	-11915
ulates	-11916
missibility	-11917
▁uzbekistan	-11918
ez	-11919
你要	-11920
其对	-11921
心的	-11922
或不	-11923
童工	-11924
船只	-11925
色情	-11926
这位	-11927
都要	-11928
预警	-11929
▁摘要	-11930
和监测	-11931
的机制	-11932
/58/	-11933
tory	-11934
世界贸易	-11935
isite	-11936
irates	-11937
▁votes	-11938
illance	-11939
▁cameroon	-11940
▁whenever	-11941
/7	-11942
其实	-11943
振兴	-11944
接着	-11945
政权	-11946
斯科	-11947
研所	-11948
礼物	-11949
西岸	-11950
rig	-11951
▁"5	-11952
以提高	-11953
和分析	-11954
对妇女的	-11955
▁frag	-11956
▁mdgs	-11957
国际刑事法院	-11958
itative	-11959
▁mongol	-11960
▁observe	-11961
▁interesting	-11962
▁surveillance	-11963
▁reimbursement	-11964
东部	-11965
但它	-11966
层次	-11967
最为	-11968
极大	-11969
欺诈	-11970
每周	-11971
编号	-11972
总干事	-11973
的分析	-11974
的唯一	-11975
还指出	-11976
agen	-11977
anim	-11978
reto	-11979
▁gef	-11980
常驻代表	-11981
▁,800	-11982
▁fccc	-11983
▁math	-11984
之间的合作	-11985
号决议所设	-11986
(2001)	-11987
▁noise	-11988
▁royal	-11989
▁特别报告员	-11990
打击恐怖主义	-11991
ilation	-11992
▁famous	-11993
▁putting	-11994
▁strictly	-11995
▁allegedly	-11996
▁convening	-11997
▁hospitals	-11998
▁intensive	-11999
▁difficulty	-12000
▁reductions	-12001
▁ultimately	-12002
▁同	-12003
如今	-12004
展览	-12005
并使	-12006
成熟	-12007
指称	-12008
文字	-12009
文学	-12010
林业	-12011
求斯	-12012
清除	-12013
真相	-12014
第八	-12015
酋长	-12016
钻石	-12017
马上	-12018
uit	-12019
在美国	-12020
的决议	-12021
等问题	-12022
说明了	-12023
可持续的	-12024
的报告中	-12025
▁conta	-12026
▁stamp	-12027
▁bolivia	-12028
▁clothes	-12029
▁killing	-12030
▁trouble	-12031
▁incurred	-12032
92	-12033
ye	-12034
创业	-12035
年为	-12036
成的	-12037
成长	-12038
来了	-12039
逻辑	-12040
▁ep	-12041
▁即使	-12042
分配给	-12043
知识和	-12044
成为一个	-12045
毛里求斯	-12046
(2008	-12047
10:00	-12048
endar	-12049
▁cool	-12050
▁gets	-12051
联合国机构	-12052
▁helps	-12053
▁intim	-12054
▁motor	-12055
forcing	-12056
▁attitude	-12057
▁governor	-12058
▁permitted	-12059
oe	-12060
和各	-12061
抓住	-12062
排斥	-12063
海岸	-12064
种类	-12065
这份	-12066
mas	-12067
当事人	-12068
很高兴	-12069
二届会议	-12070
提请注意	-12071
进行合作	-12072
▁spot	-12073
共和国总统	-12074
无核武器区	-12075
▁qatar	-12076
▁refused	-12077
▁remarks	-12078
▁signing	-12079
▁describe	-12080
▁reaffirm	-12081
▁disclosure	-12082
▁prosecutors	-12083
▁disappearance	-12084
复原	-12085
家长	-12086
授予	-12087
是以	-12088
演讲	-12089
计量	-12090
▁tu	-12091
和儿童	-12092
奥运会	-12093
带来了	-12094
的结构	-12095
的观点	-12096
的限制	-12097
自由和	-12098
该组织	-12099
五届会议	-12100
加沙地带	-12101
培训方案	-12102
▁jump	-12103
▁unto	-12104
亚太经社会	-12105
几内亚比绍	-12106
届特别会议	-12107
▁rough	-12108
▁heading	-12109
▁politic	-12110
▁declined	-12111
▁emphasize	-12112
▁nicaragua	-12113
▁macroeconomic	-12114
削弱	-12115
双重	-12116
否认	-12117
带着	-12118
干涉	-12119
捍卫	-12120
昨天	-12121
短缺	-12122
eck	-12123
因特网	-12124
国内法	-12125
基本上	-12126
▁usd	-12127
该国政府	-12128
残疾人权利	-12129
给秘书长的信	-12130
▁mobility	-12131
▁straight	-12132
▁budgeting	-12133
▁discharge	-12134
▁contractor	-12135
▁administered	-12136
▁declarations	-12137
▁beneficiaries	-12138
82	-12139
NA	-12140
买卖	-12141
免遭	-12142
和我	-12143
围绕	-12144
局面	-12145
工商	-12146
新型	-12147
疫苗	-12148
离职	-12149
老板	-12150
人们对	-12151
小企业	-12152
重要性	-12153
▁62.	-12154
▁oda	-12155
提交报告	-12156
良好做法	-12157
ipped	-12158
▁irre	-12159
▁sect	-12160
iration	-12161
▁pregnant	-12162
▁mediation	-12163
▁ordinance	-12164
▁prioritiz	-12165
▁technique	-12166
▁attributable	-12167
休息	-12168
名义	-12169
后面	-12170
奖励	-12171
并应	-12172
玻璃	-12173
联塞	-12174
蛋白	-12175
250	-12176
zen	-12177
六个月	-12178
在中国	-12179
arms	-12180
eces	-12181
▁gol	-12182
▁hrc	-12183
仇外心理	-12184
再生能源	-12185
战略计划	-12186
通过议程	-12187
▁1987	-12188
▁cars	-12189
▁atomic	-12190
▁leaves	-12191
▁replies	-12192
▁mutually	-12193
▁applicant	-12194
▁directors	-12195
▁adolescents	-12196
不列颠及北爱尔兰联合王国	-12197
出发	-12198
在不	-12199
并于	-12200
必然	-12201
招聘	-12202
率和	-12203
结核	-12204
via	-12205
对这一	-12206
巴塞尔	-12207
指挥官	-12208
是我们	-12209
条件下	-12210
的领域	-12211
▁crp	-12212
妇女参与	-12213
履行机构	-12214
温室气体	-12215
iving	-12216
▁shap	-12217
主席团成员	-12218
▁remun	-12219
▁discip	-12220
▁korean	-12221
▁signal	-12222
▁sunday	-12223
▁clients	-12224
▁herself	-12225
▁romania	-12226
▁analyses	-12227
▁deprived	-12228
人均	-12229
在线	-12230
火车	-12231
除外	-12232
驱动	-12233
▁需要	-12234
的质量	-12235
获得的	-12236
/57/	-12237
▁imf	-12238
▁lad	-12239
发展筹资	-12240
发展议程	-12241
指导原则	-12242
通货膨胀	-12243
issau	-12244
▁1967	-12245
妇女和女孩	-12246
缔约方大会	-12247
非自治领土	-12248
▁bright	-12249
▁chairs	-12250
▁corner	-12251
▁hungary	-12252
难民事务高级专员	-12253
▁advances	-12254
▁exclusion	-12255
▁prescribed	-12256
▁eliminating	-12257
人群	-12258
公认	-12259
民兵	-12260
瓦尔	-12261
签证	-12262
退化	-12263
III	-12264
和中国	-12265
在纽约	-12266
得不到	-12267
斯先生	-12268
活动中	-12269
的历史	-12270
/61/	-12271
▁fes	-12272
▁las	-12273
六届会议	-12274
成本效益	-12275
▁hill	-12276
▁jack	-12277
妇女和女童	-12278
vation	-12279
▁cypri	-12280
▁mauri	-12281
utation	-12282
▁minute	-12283
▁winter	-12284
委员会建议缔约国	-12285
▁salaries	-12286
▁meaningful	-12287
94	-12288
做好	-12289
和性	-12290
在与	-12291
爱情	-12292
给他	-12293
900	-12294
:30	-12295
att	-12296
及其对	-12297
各机构	-12298
和地方	-12299
支持和	-12300
法庭的	-12301
的发言	-12302
的学生	-12303
/64/	-12304
vity	-12305
▁"2.	-12306
▁hid	-12307
作出努力	-12308
武装团体	-12309
特别程序	-12310
核武器国家	-12311
▁interc	-12312
▁restaur	-12313
▁steering	-12314
▁advantages	-12315
▁conviction	-12316
▁elaboration	-12317
▁clarification	-12318
一场	-12319
年中	-12320
新兴	-12321
爸爸	-12322
监护	-12323
营地	-12324
谋杀	-12325
遗传	-12326
避孕	-12327
ams	-12328
iii	-12329
网站上	-12330
▁69.	-12331
本届会议	-12332
▁1985	-12333
东耶路撒冷	-12334
▁postp	-12335
▁sweet	-12336
uration	-12337
▁simpli	-12338
▁depending	-12339
▁occupying	-12340
▁corporation	-12341
▁contemporary	-12342
职类	-12343
被捕	-12344
转向	-12345
shr	-12346
▁dj	-12347
与和平	-12348
发表的	-12349
日终了	-12350
生活的	-12351
类似的	-12352
bert	-12353
tius	-12354
▁57.	-12355
弱势群体	-12356
犯罪行为	-12357
▁hero	-12358
巴勒斯坦人	-12359
开展的活动	-12360
▁defer	-12361
▁logis	-12362
▁tajik	-12363
ocation	-12364
▁config	-12365
▁unions	-12366
2010-2011	-12367
▁channels	-12368
▁referend	-12369
▁sentences	-12370
▁comprising	-12371
▁extraordinary	-12372
▁liberalization	-12373
产量	-12374
人才	-12375
司长	-12376
向其	-12377
手续	-12378
援引	-12379
缴款	-12380
详情	-12381
输入	-12382
邮政	-12383
▁方案	-12384
以及为	-12385
并促进	-12386
环境的	-12387
进程中	-12388
行政首长	-12389
进行审查	-12390
elled	-12391
▁beat	-12392
▁wear	-12393
ergies	-12394
▁texts	-12395
▁upper	-12396
entieth	-12397
▁gained	-12398
最不发达国家的	-12399
▁capture	-12400
▁servants	-12401
▁conducive	-12402
▁targeting	-12403
▁suppression	-12404
▁appropriation	-12405
▁complementary	-12406
合格	-12407
在对	-12408
胜利	-12409
警务	-12410
防范	-12411
以及与	-12412
和资源	-12413
期间的	-12414
津巴布	-12415
的贡献	-12416
lick	-12417
▁jew	-12418
organ	-12419
▁,100	-12420
▁inad	-12421
▁pace	-12422
▁earning	-12423
▁jamaica	-12424
▁promulg	-12425
▁consists	-12426
▁maintains	-12427
▁objection	-12428
▁twentieth	-12429
▁attendance	-12430
▁disciplinary	-12431
▁organisation	-12432
▁O	-12433
伤亡	-12434
住在	-12435
和无	-12436
娱乐	-12437
寿命	-12438
屠杀	-12439
赠款	-12440
"""	-12441
我们要	-12442
排放量	-12443
系统和	-12444
vals	-12445
▁119	-12446
▁60.	-12447
▁gal	-12448
本组织的	-12449
津巴布韦	-12450
▁milk	-12451
▁wave	-12452
ceived	-12453
▁arise	-12454
▁grown	-12455
▁inher	-12456
巴勒斯坦领土	-12457
▁garden	-12458
▁lastly	-12459
▁orally	-12460
▁sloven	-12461
▁tariff	-12462
▁focuses	-12463
▁relates	-12464
▁deadline	-12465
▁unlawful	-12466
▁villages	-12467
给安全理事会主席的信	-12468
▁references	-12469
健全	-12470
副本	-12471
大众	-12472
更高	-12473
看着	-12474
编列	-12475
罚款	-12476
证件	-12477
谨慎	-12478
赞助	-12479
足以	-12480
采纳	-12481
HRC	-12482
rgy	-12483
▁任何	-12484
书记官	-12485
和会议	-12486
方法和	-12487
的一次	-12488
等方面	-12489
结束后	-12490
表现出	-12491
3:00	-12492
lers	-12493
lets	-12494
▁thy	-12495
我们认为	-12496
条款草案	-12497
社会主义	-12498
▁,300	-12499
▁cabin	-12500
▁inval	-12501
▁mixed	-12502
▁prove	-12503
▁abuses	-12504
2008-2009	-12505
▁eligible	-12506
▁employee	-12507
▁mandatory	-12508
▁ourselves	-12509
▁architecture	-12510
▁图	-12511
儿基	-12512
准入	-12513
含量	-12514
圣诞	-12515
垃圾	-12516
害怕	-12517
家园	-12518
当代	-12519
搜索	-12520
的海	-12521
缩小	-12522
采矿	-12523
ata	-12524
▁"6	-12525
不仅仅	-12526
价值观	-12527
公约的	-12528
或处罚	-12529
/62/	-12530
laim	-12531
rgyz	-12532
▁64.	-12533
▁cis	-12534
强调必须	-12535
杀伤人员	-12536
▁,700	-12537
▁burn	-12538
▁mold	-12539
▁国际社会	-12540
非正式磋商	-12541
▁acute	-12542
▁broken	-12543
▁shelter	-12544
▁turning	-12545
▁advertis	-12546
▁involves	-12547
▁mobilize	-12548
▁decreased	-12549
▁mauritius	-12550
▁volunteer	-12551
▁eventually	-12552
▁counselling	-12553
▁competitiveness	-12554
也应	-12555
仪式	-12556
定位	-12557
带有	-12558
有多	-12559
每日	-12560
比额	-12561
民警	-12562
照会	-12563
老人	-12564
试点	-12565
(1)	-12566
,19	-12567
erb	-12568
▁ki	-12569
冲突的	-12570
可行的	-12571
文件中	-12572
▁250	-12573
中的作用	-12574
(2000	-12575
liers	-12576
uters	-12577
▁dear	-12578
tirely	-12579
▁knows	-12580
graphic	-12581
▁handle	-12582
▁kyrgyz	-12583
▁penalties	-12584
▁sentenced	-12585
▁logistical	-12586
▁interference	-12587
71	-12588
▁L	-12589
事宜	-12590
几天	-12591
分割	-12592
布基	-12593
每次	-12594
消失	-12595
爆发	-12596
穷人	-12597
han	-12598
▁结论	-12599
不需要	-12600
之一是	-12601
▁.16	-12602
全球经济	-12603
向联合国	-12604
行动方案	-12605
达成协议	-12606
▁scar	-12607
uction	-12608
▁cards	-12609
▁david	-12610
▁feature	-12611
▁prejudice	-12612
▁suspended	-12613
回返	-12614
平方	-12615
开办	-12616
本法	-12617
核实	-12618
消灭	-12619
给了	-12620
那时	-12621
▁临时	-12622
确保在	-12623
/59/	-12624
imes	-12625
成员国的	-12626
最重要的	-12627
经验教训	-12628
继续进行	-12629
▁rely	-12630
▁brown	-12631
▁movie	-12632
▁arabic	-12633
▁battle	-12634
▁suffic	-12635
▁themes	-12636
维持和平行动部	-12637
ID	-12638
▁按	-12639
▁阿	-12640
期的	-12641
浪费	-12642
申明	-12643
缴纳	-12644
要点	-12645
起了	-12646
足球	-12647
(19	-12648
/15	-12649
oci	-12650
ums	-12651
不超过	-12652
低收入	-12653
是由于	-12654
的人们	-12655
还包括	-12656
rote	-12657
开发银行	-12658
强有力的	-12659
紧急情况	-12660
领土完整	-12661
bound	-12662
▁flat	-12663
▁divor	-12664
▁moham	-12665
▁pharm	-12666
不扩散核武器	-12667
杀伤人员地雷	-12668
▁assume	-12669
▁licens	-12670
▁merits	-12671
▁thereof	-12672
countered	-12673
▁proceeds	-12674
▁quantity	-12675
▁generations	-12676
▁subsistence	-12677
▁unfortunately	-12678
ni	-12679
专利	-12680
典型	-12681
批款	-12682
气氛	-12683
的多	-12684
议院	-12685
较为	-12686
首都	-12687
指定的	-12688
的生产	-12689
的进展	-12690
的部分	-12691
▁era	-12692
▁fro	-12693
▁wet	-12694
开展合作	-12695
有所增加	-12696
(1999	-12697
▁haven	-12698
▁roads	-12699
▁roman	-12700
▁ships	-12701
民间社会组织	-12702
▁bissau	-12703
▁impose	-12704
▁attitudes	-12705
▁initially	-12706
▁suspected	-12707
▁accomplishments	-12708
va	-12709
不罚	-12710
仇恨	-12711
修建	-12712
布鲁	-12713
所示	-12714
救助	-12715
显得	-12716
法索	-12717
通用	-12718
决定在	-12719
培训班	-12720
建立的	-12721
我现在	-12722
条和第	-12723
/65/	-12724
ions	-12725
▁65.	-12726
▁phr	-12727
和平解决	-12728
提交一份	-12729
▁cart	-12730
▁draf	-12731
▁欧洲联盟	-12732
▁insol	-12733
▁layer	-12734
世界人权宣言	-12735
▁bought	-12736
▁breast	-12737
▁coffee	-12738
▁deploy	-12739
▁dinner	-12740
▁offset	-12741
▁slovak	-12742
▁doctors	-12743
▁showing	-12744
▁vessels	-12745
▁constitu	-12746
▁profound	-12747
▁weakness	-12748
▁disseminate	-12749
SA	-12750
ca	-12751
▁经	-12752
学位	-12753
引入	-12754
恰当	-12755
术语	-12756
比克	-12757
漂亮	-12758
约有	-12759
选出	-12760
INF	-12761
▁gc	-12762
▁rh	-12763
▁无论	-12764
准备金	-12765
加强对	-12766
实施了	-12767
▁"1.	-12768
▁103	-12769
▁108	-12770
▁holy	-12771
塔吉克斯坦	-12772
▁horiz	-12773
trusted	-12774
▁couldn	-12775
▁outline	-12776
▁calendar	-12777
▁delegates	-12778
▁H	-12779
你是	-12780
利尔	-12781
反馈	-12782
实物	-12783
市民	-12784
应以	-12785
很高	-12786
CCC	-12787
和决定	-12788
大量的	-12789
政府对	-12790
有一些	-12791
的最大	-12792
竞争力	-12793
第六十	-12794
面临着	-12795
abwe	-12796
取得成功	-12797
(2006	-12798
▁1970	-12799
▁ring	-12800
acting	-12801
ressed	-12802
▁scene	-12803
▁stands	-12804
▁confisc	-12805
▁returns	-12806
▁contrast	-12807
▁visitors	-12808
▁concerted	-12809
▁elsewhere	-12810
▁favourable	-12811
▁acknowledge	-12812
fi	-12813
gi	-12814
东欧	-12815
德班	-12816
花费	-12817
10.	-12818
▁主要	-12819
同时也	-12820
增长率	-12821
年开始	-12822
我知道	-12823
执行的	-12824
提供给	-12825
签署了	-12826
行为者	-12827
▁104	-12828
一个国家	-12829
共同努力	-12830
发挥作用	-12831
家庭成员	-12832
eness	-12833
▁boss	-12834
▁tons	-12835
lining	-12836
▁horse	-12837
imbabwe	-12838
▁makers	-12839
▁imports	-12840
▁recover	-12841
▁feedback	-12842
找出	-12843
本书	-12844
竞赛	-12845
跨界	-12846
▁经济	-12847
事务处	-12848
会期间	-12849
和妇女	-12850
我们对	-12851
最近的	-12852
提交人的	-12853
正在进行	-12854
环境保护	-12855
的一般性	-12856
ights	-12857
▁nice	-12858
特设工作组	-12859
社会和经济	-12860
部队派遣国	-12861
▁awards	-12862
▁extrac	-12863
▁hosted	-12864
内部监督事务厅	-12865
gregated	-12866
▁therein	-12867
▁boundary	-12868
▁sponsored	-12869
▁underlined	-12870
▁credibility	-12871
Ab	-12872
▁·	-12873
不少	-12874
存款	-12875
当今	-12876
推出	-12877
无人	-12878
村庄	-12879
火箭	-12880
皮肤	-12881
筹集	-12882
签字	-12883
考察	-12884
视频	-12885
零零	-12886
世界的	-12887
反映出	-12888
很重要	-12889
成立了	-12890
独立性	-12891
opol	-12892
▁.14	-12893
▁bea	-12894
国家元首	-12895
bally	-12896
▁1982	-12897
▁dele	-12898
▁thou	-12899
▁临时议程	-12900
委员会欢迎	-12901
lantic	-12902
▁canad	-12903
▁serves	-12904
▁chronic	-12905
▁diverse	-12906
▁regimes	-12907
▁zimbabwe	-12908
▁happiness	-12909
▁radiation	-12910
▁generating	-12911
▁directorate	-12912
▁necessarily	-12913
▁organisations	-12914
dr	-12915
▁把	-12916
▁非	-12917
不当	-12918
代码	-12919
会使	-12920
免受	-12921
子里	-12922
形态	-12923
性恋	-12924
成分	-12925
撤回	-12926
热情	-12927
纤维	-12928
莫桑	-12929
%)。	-12930
很可能	-12931
核试验	-12932
的一名	-12933
还必须	-12934
黎部队	-12935
ders	-12936
ulum	-12937
▁101	-12938
专家会议	-12939
国际会议	-12940
研究报告	-12941
莫桑比克	-12942
cohol	-12943
point	-12944
公务员制度	-12945
委员会关于	-12946
▁leste	-12947
▁syria	-12948
▁excess	-12949
▁employer	-12950
▁firearms	-12951
▁consequence	-12952
▁presentations	-12953
前提	-12954
动机	-12955
在我	-12956
抵达	-12957
离婚	-12958
麻烦	-12959
下一次	-12960
在任何	-12961
强制性	-12962
让他们	-12963
long	-12964
uras	-12965
what	-12966
▁dil	-12967
▁sar	-12968
和平利用	-12969
有罪不罚	-12970
dorse	-12971
rants	-12972
▁rout	-12973
▁alarm	-12974
▁files	-12975
▁ideal	-12976
▁metal	-12977
▁nepad	-12978
▁militi	-12979
▁simult	-12980
▁unifem	-12981
▁besides	-12982
▁inherent	-12983
▁convicted	-12984
人是	-12985
伯利	-12986
医务	-12987
复苏	-12988
布雷	-12989
并以	-12990
有用	-12991
权能	-12992
特使	-12993
第九	-12994
过于	-12995
送交	-12996
零售	-12997
COP	-12998
htm	-12999
usp	-13000
一直是	-13001
在大会	-13002
的答复	-13003
▁68.	-13004
▁nap	-13005
构成部分	-13006
的必要性	-13007
着重指出	-13008
简要记录	-13009
field	-13010
▁nurs	-13011
▁fewer	-13012
▁minur	-13013
▁unanim	-13014
▁heavily	-13015
▁surplus	-13016
inational	-13017
▁measured	-13018
▁electrical	-13019
▁collaborative	-13020
91	-13021
不想	-13022
今日	-13023
即便	-13024
品牌	-13025
对抗	-13026
引导	-13027
收容	-13028
样的	-13029
积累	-13030
税务	-13031
糟糕	-13032
该法	-13033
▁fi	-13034
▁ru	-13035
▁以下	-13036
不稳定	-13037
在某些	-13038
mony	-13039
▁130	-13040
▁67.	-13041
▁aqu	-13042
大会主席	-13043
安全部队	-13044
营养不良	-13045
▁okay	-13046
▁rice	-13047
次全体会议	-13048
▁helic	-13049
▁brings	-13050
tization	-13051
▁alcohol	-13052
▁assumed	-13053
▁classes	-13054
▁selling	-13055
▁restoration	-13056
▁corporations	-13057
7(	-13058
:《	-13059
下跌	-13060
两者	-13061
会见	-13062
和新	-13063
奴隶	-13064
年间	-13065
忘记	-13066
格林	-13067
的心	-13068
竞选	-13069
西洋	-13070
诉诸	-13071
队伍	-13072
俱乐部	-13073
就业和	-13074
布基纳	-13075
清楚地	-13076
ique	-13077
▁moz	-13078
寻求庇护	-13079
工作计划	-13080
结盟运动	-13081
这是一个	-13082
非常重要	-13083
ourse	-13084
代表团认为	-13085
▁deals	-13086
▁facto	-13087
▁stone	-13088
国内生产总值	-13089
izations	-13090
▁delayed	-13091
▁narcotic	-13092
▁slovenia	-13093
▁addresses	-13094
▁candidate	-13095
▁expulsion	-13096
//	-13097
CA	-13098
PR	-13099
sk	-13100
向前	-13101
契约	-13102
干扰	-13103
深刻	-13104
署长	-13105
说过	-13106
/18	-13107
CRP	-13108
oul	-13109
制定的	-13110
受到了	-13111
案件中	-13112
相应的	-13113
类型的	-13114
结束时	-13115
CONF	-13116
▁.13	-13117
▁.18	-13118
▁fdi	-13119
▁mix	-13120
▁sla	-13121
号决议和	-13122
这些措施	-13123
麻醉药品	-13124
ients	-13125
▁dual	-13126
▁dump	-13127
▁pure	-13128
▁tear	-13129
布基纳法索	-13130
方面取得了	-13131
▁easier	-13132
▁prince	-13133
▁chaired	-13134
▁emerged	-13135
▁bulgaria	-13136
▁forestry	-13137
▁immunity	-13138
▁likewise	-13139
▁associate	-13140
▁reinforce	-13141
▁calculated	-13142
▁termination	-13143
▁willingness	-13144
了吗	-13145
散发	-13146
数学	-13147
整合	-13148
案情	-13149
深信	-13150
贝宁	-13151
购置	-13152
运送	-13153
遏制	-13154
部件	-13155
酒店	-13156
aka	-13157
rum	-13158
▁,3	-13159
▁他在	-13160
环境和	-13161
的审查	-13162
脆弱性	-13163
部门和	-13164
bted	-13165
▁mel	-13166
▁提交人	-13167
包括通过	-13168
十分重要	-13169
基于性别	-13170
妇发基金	-13171
性别观点	-13172
inder	-13173
osoph	-13174
▁cant	-13175
加强联合国	-13176
提供了一个	-13177
政策和方案	-13178
ifying	-13179
▁leads	-13180
deavour	-13181
▁partly	-13182
▁zambia	-13183
▁contrad	-13184
▁exposed	-13185
▁holders	-13186
▁perspec	-13187
▁submits	-13188
▁adjusted	-13189
▁creative	-13190
▁americans	-13191
▁subsidies	-13192
▁appreciate	-13193
▁appointments	-13194
▁disadvantaged	-13195
6)	-13196
81	-13197
不错	-13198
合物	-13199
外联	-13200
常任	-13201
弥补	-13202
统筹	-13203
表演	-13204
阶层	-13205
DAW	-13206
与国家	-13207
ches	-13208
umes	-13209
▁71.	-13210
▁fis	-13211
▁sha	-13212
代表大会	-13213
秘书长的	-13214
移徙工人	-13215
约束力的	-13216
蒙特利尔	-13217
joyed	-13218
▁faces	-13219
shrined	-13220
▁durban	-13221
▁infant	-13222
▁causing	-13223
▁missile	-13224
▁fulfilment	-13225
▁laboratory	-13226
▁#	-13227
使他	-13228
我也	-13229
指令	-13230
无害	-13231
本文	-13232
的分	-13233
的总	-13234
ami	-13235
▁cs	-13236
在整个	-13237
大幅度	-13238
失业率	-13239
很容易	-13240
条例和	-13241
阐述了	-13242
▁63.	-13243
▁abu	-13244
应用程序	-13245
技术转让	-13246
正式语文	-13247
残疾人的	-13248
经合组织	-13249
表示感谢	-13250
表示赞赏	-13251
所作的努力	-13252
缔约国会议	-13253
▁cargo	-13254
▁wages	-13255
▁worst	-13256
▁commem	-13257
▁dispar	-13258
▁careful	-13259
▁durable	-13260
▁historic	-13261
▁algorithm	-13262
▁commander	-13263
▁stressing	-13264
▁retirement	-13265
▁tajikistan	-13266
▁consolidate	-13267
▁perspectives	-13268
力求	-13269
号码	-13270
奠定	-13271
完美	-13272
无效	-13273
直升	-13274
章程	-13275
awi	-13276
tar	-13277
将通过	-13278
的严重	-13279
▁107	-13280
▁66.	-13281
▁fas	-13282
▁大多数	-13283
人权状况	-13284
适当措施	-13285
(212)	-13286
全体会议上	-13287
关于联合国	-13288
▁named	-13289
▁swiss	-13290
▁taxes	-13291
满意地注意到	-13292
▁trials	-13293
▁factory	-13294
▁inhabit	-13295
▁legitim	-13296
▁portfol	-13297
▁assurance	-13298
▁philosoph	-13299
▁complexity	-13300
▁definitions	-13301
▁authorization	-13302
▁municipalities	-13303
SP	-13304
商店	-13305
小姐	-13306
条和	-13307
碎片	-13308
精确	-13309
群众	-13310
耶稣	-13311
西部	-13312
ano	-13313
▁法国	-13314
不包括	-13315
之日起	-13316
在那里	-13317
灵活性	-13318
的事件	-13319
的利益	-13320
的立法	-13321
的第一	-13322
的精神	-13323
ille	-13324
▁dan	-13325
强迫失踪	-13326
stein	-13327
▁inev	-13328
▁luck	-13329
▁trig	-13330
itious	-13331
▁blind	-13332
▁pages	-13333
▁咨询委员会	-13334
坦桑尼亚联合	-13335
▁sample	-13336
▁annexes	-13337
▁players	-13338
▁montreal	-13339
▁accounted	-13340
▁smuggling	-13341
▁contractors	-13342
一国	-13343
以南	-13344
你能	-13345
养护	-13346
好吗	-13347
存储	-13348
实用	-13349
对手	-13350
局长	-13351
序言	-13352
开采	-13353
推荐	-13354
是为	-13355
氯化	-13356
自从	-13357
和公共	-13358
和原则	-13359
在许多	-13360
很好的	-13361
比额表	-13362
的文化	-13363
管理层	-13364
预算的	-13365
1988	-13366
UNEP	-13367
▁dom	-13368
▁fab	-13369
减贫战略	-13370
咨询小组	-13371
非法贩运	-13372
▁guil	-13373
▁ment	-13374
▁shot	-13375
之间的联系	-13376
建议缔约国	-13377
▁academy	-13378
▁possibly	-13379
▁revealed	-13380
▁briefings	-13381
▁ecological	-13382
▁emphasizing	-13383
▁potentially	-13384
▁administrator	-13385
不必	-13386
减缓	-13387
呼吸	-13388
爱沙	-13389
ker	-13390
些时候	-13391
儿基会	-13392
建筑物	-13393
的业务	-13394
第五十	-13395
▁106	-13396
▁imb	-13397
爱沙尼亚	-13398
行动纲要	-13399
▁bird	-13400
▁fing	-13401
▁hamp	-13402
▁pump	-13403
政府间组织	-13404
▁ozone	-13405
▁quiet	-13406
regular	-13407
▁festiv	-13408
▁retail	-13409
▁existed	-13410
▁thereon	-13411
▁whereby	-13412
达尔富尔混合行动	-13413
▁highlight	-13414
▁prevented	-13415
不人道或有辱人格的待遇	-13416
▁substantially	-13417
▁<	-13418
▁谨	-13419
力度	-13420
命运	-13421
年起	-13422
或其	-13423
是的	-13424
本来	-13425
熟悉	-13426
调节	-13427
谈话	-13428
过了	-13429
陶宛	-13430
(2)	-13431
ato	-13432
ira	-13433
决策者	-13434
和社区	-13435
对我们	-13436
明显的	-13437
的指控	-13438
的特别	-13439
自由化	-13440
军事行动	-13441
行政部门	-13442
▁gath	-13443
▁porn	-13444
▁yeah	-13445
所有会员国	-13446
▁holds	-13447
▁wrote	-13448
▁append	-13449
▁viewed	-13450
▁commonwe	-13451
▁mainland	-13452
▁mongolia	-13453
▁promptly	-13454
▁exercises	-13455
▁irregular	-13456
▁offenders	-13457
▁indicating	-13458
my	-13459
一张	-13460
克劳	-13461
塞族	-13462
它是	-13463
应将	-13464
无疑	-13465
测定	-13466
重的	-13467
net	-13468
▁wp	-13469
和司法	-13470
应该是	-13471
机构在	-13472
的综合	-13473
立陶宛	-13474
采用了	-13475
集中在	-13476
高质量	-13477
▁111	-13478
中国政府	-13479
充分执行	-13480
外勤支助	-13481
▁arre	-13482
▁paul	-13483
巴塞尔公约	-13484
▁unifil	-13485
消除对妇女歧视	-13486
▁apprais	-13487
▁helicop	-13488
▁illness	-13489
▁saharan	-13490
▁autonomy	-13491
▁defining	-13492
▁accidents	-13493
▁admission	-13494
▁suppliers	-13495
▁greenhouse	-13496
▁compilation	-13497
▁emergencies	-13498
▁consistently	-13499
xi	-13500
之际	-13501
广大	-13502
真诚	-13503
网址	-13504
://	-13505
dam	-13506
osi	-13507
tan	-13508
参与了	-13509
年世界	-13510
并提供	-13511
的立场	-13512
/63/	-13513
holm	-13514
uous	-13515
▁102	-13516
▁una	-13517
常设论坛	-13518
由联合国	-13519
科学技术	-13520
管理系统	-13521
isive	-13522
vency	-13523
▁boat	-13524
▁wire	-13525
第五委员会	-13526
附加议定书	-13527
▁spare	-13528
ultural	-13529
▁beauty	-13530
▁convey	-13531
▁acquire	-13532
▁notwith	-13533
▁patient	-13534
▁refrain	-13535
▁restore	-13536
titioners	-13537
▁argument	-13538
▁globally	-13539
▁judgment	-13540
▁scholars	-13541
▁eradicate	-13542
▁producers	-13543
▁undermine	-13544
▁inspectors	-13545
▁notwithstanding	-13546
主教	-13547
困境	-13548
增多	-13549
增至	-13550
失望	-13551
应收	-13552
纲领	-13553
置于	-13554
营业	-13555
预定	-13556
东南亚	-13557
居住在	-13558
必不可	-13559
效率和	-13560
殖民地	-13561
的进程	-13562
系统地	-13563
/66/	-13564
aven	-13565
▁raw	-13566
▁unu	-13567
▁实际上	-13568
有关决议	-13569
表示支持	-13570
wered	-13571
▁desi	-13572
gaging	-13573
▁monuc	-13574
▁pound	-13575
▁solar	-13576
urances	-13577
▁portion	-13578
▁advisers	-13579
▁ceasefire	-13580
▁infection	-13581
▁appearance	-13582
▁constantly	-13583
▁instruction	-13584
▁commonwealth	-13585
▁characterized	-13586
3,	-13587
4(	-13588
EC	-13589
两位	-13590
会儿	-13591
勘探	-13592
多名	-13593
小心	-13594
技巧	-13595
活跃	-13596
流入	-13597
犯有	-13598
补编	-13599
超出	-13600
颜色	-13601
▁"1	-13602
▁09	-13603
你们的	-13604
和家庭	-13605
星期一	-13606
星期五	-13607
污染物	-13608
的援助	-13609
burg	-13610
▁gab	-13611
▁我认为	-13612
国际标准	-13613
调查结果	-13614
(2003	-13615
/2006	-13616
▁ange	-13617
▁swim	-13618
▁thick	-13619
isation	-13620
▁uphold	-13621
▁dropped	-13622
▁exactly	-13623
▁pursuit	-13624
▁replied	-13625
▁thereto	-13626
fications	-13627
▁finished	-13628
▁retained	-13629
▁tangible	-13630
▁workload	-13631
▁referring	-13632
▁earthquake	-13633
▁threatened	-13634
▁remuneration	-13635
▁若	-13636
储蓄	-13637
分担	-13638
含义	-13639
宣称	-13640
已于	-13641
节约	-13642
设定	-13643
12.	-13644
iel	-13645
▁与会	-13646
协助下	-13647
听取了	-13648
的设计	-13649
该国的	-13650
1:00	-13651
各缔约国	-13652
粮食安全	-13653
经费筹措	-13654
言论自由	-13655
这些活动	-13656
▁,900	-13657
▁1373	-13658
▁muse	-13659
荒漠化公约	-13660
越来越多的	-13661
urally	-13662
▁abduc	-13663
▁extrem	-13664
▁remark	-13665
▁resort	-13666
▁strike	-13667
▁intends	-13668
▁undersc	-13669
▁credible	-13670
坦桑尼亚联合共和国	-13671
经济及社会理事会第	-13672
▁curriculum	-13673
▁discipline	-13674
▁interdepend	-13675
▁admissibility	-13676
中对	-13677
传递	-13678
外汇	-13679
当作	-13680
抑制	-13681
投标	-13682
范畴	-13683
谋求	-13684
追加	-13685
▁ga	-13686
只有在	-13687
想知道	-13688
更广泛	-13689
被剥夺	-13690
难民和	-13691
▁tea	-13692
国际文书	-13693
所造成的	-13694
所采取的	-13695
筹备工作	-13696
这样一个	-13697
sured	-13698
ecting	-13699
▁dates	-13700
▁falls	-13701
▁sight	-13702
▁capita	-13703
▁cataly	-13704
▁murder	-13705
▁rescue	-13706
▁cabinet	-13707
▁tension	-13708
▁equipped	-13709
▁injuries	-13710
▁expensive	-13711
▁satisfied	-13712
▁prevalence	-13713
▁referendum	-13714
▁suggestion	-13715
▁好	-13716
下述	-13717
了其	-13718
优质	-13719
前进	-13720
可信	-13721
可用	-13722
地中	-13723
少的	-13724
摧毁	-13725
浓度	-13726
迁移	-13727
ala	-13728
che	-13729
▁可以	-13730
发展权	-13731
号法令	-13732
方法的	-13733
爆炸物	-13734
讨论的	-13735
该公司	-13736
费用的	-13737
▁fly	-13738
以及关于	-13739
充分利用	-13740
地方当局	-13741
▁vend	-13742
和其他残忍	-13743
atories	-13744
general	-13745
(212)963	-13746
▁canadian	-13747
▁modified	-13748
打击跨国有组织犯罪	-13749
▁suspension	-13750
下次	-13751
使命	-13752
原理	-13753
地上	-13754
太多	-13755
家的	-13756
弃权	-13757
拿马	-13758
asa	-13759
uda	-13760
▁今年	-13761
为促进	-13762
届常会	-13763
并根据	-13764
检查组	-13765
移徙者	-13766
简单的	-13767
行为体	-13768
ourg	-13769
▁sli	-13770
纳米比亚	-13771
/2000	-13772
▁1981	-13773
▁soul	-13774
军事观察员	-13775
tioned	-13776
▁unmik	-13777
▁breath	-13778
▁visual	-13779
▁worker	-13780
▁damages	-13781
▁severely	-13782
▁slightly	-13783
▁coalition	-13784
▁stockholm	-13785
不多	-13786
他对	-13787
任用	-13788
兴奋	-13789
回报	-13790
斯德	-13791
施工	-13792
未决	-13793
欣见	-13794
盟约	-13795
至第	-13796
认捐	-13797
贯彻	-13798
部委	-13799
任务的	-13800
对他们	-13801
流行病	-13802
的谈判	-13803
kina	-13804
roll	-13805
▁我们的	-13806
代理主席	-13807
减少灾害	-13808
法律规定	-13809
维和行动	-13810
▁1984	-13811
▁ausp	-13812
▁throw	-13813
▁affirm	-13814
▁casual	-13815
▁suspic	-13816
秘书长特别代表	-13817
常驻联合国代表团	-13818
▁distinct	-13819
▁shipping	-13820
▁studying	-13821
▁assurances	-13822
-6	-13823
▁另	-13824
个案	-13825
代替	-13826
修复	-13827
准许	-13828
合成	-13829
多么	-13830
愉快	-13831
操守	-13832
纪录	-13833
耳他	-13834
追踪	-13835
ook	-13836
▁bh	-13837
▁应当	-13838
尔多瓦	-13839
的不同	-13840
调查和	-13841
适用的	-13842
look	-13843
ongo	-13844
四届会议	-13845
icide	-13846
utors	-13847
▁crac	-13848
▁gate	-13849
▁peak	-13850
执行委员会	-13851
ighten	-13852
▁escal	-13853
吉尔吉斯斯坦	-13854
▁census	-13855
▁unamid	-13856
--------	-13857
▁promise	-13858
▁messages	-13859
▁promotes	-13860
▁suddenly	-13861
▁ultimate	-13862
▁workplace	-13863
▁uncertainty	-13864
中文	-13865
假如	-13866
半年	-13867
原籍	-13868
核能	-13869
物种	-13870
玛丽	-13871
获益	-13872
赤字	-13873
asp	-13874
▁,4	-13875
▁导言	-13876
▁这次	-13877
不存在	-13878
卫生部	-13879
大西洋	-13880
数据的	-13881
材料的	-13882
法律的	-13883
的投资	-13884
▁dad	-13885
▁luc	-13886
秘书处的	-13887
/2002	-13888
▁bath	-13889
劳动力市场	-13890
安理会成员	-13891
▁malta	-13892
▁repar	-13893
▁images	-13894
▁mozamb	-13895
▁slowly	-13896
▁sitting	-13897
问题世界首脑会议	-13898
▁emirates	-13899
▁innocent	-13900
▁munitions	-13901
▁consisting	-13902
▁liberation	-13903
▁translated	-13904
ih	-13905
上一	-13906
不太	-13907
东盟	-13908
优秀	-13909
刚才	-13910
到底	-13911
前面	-13912
司机	-13913
渴望	-13914
真是	-13915
米尔	-13916
约为	-13917
走向	-13918
部落	-13919
.12	-13920
700	-13921
▁一般	-13922
▁不要	-13923
▁使用	-13924
出现在	-13925
国家在	-13926
的态度	-13927
都可以	-13928
care	-13929
▁114	-13930
▁unw	-13931
▁加拿大	-13932
千年宣言	-13933
发展战略	-13934
后勤基地	-13935
提供便利	-13936
特别注意	-13937
astro	-13938
teneg	-13939
uracy	-13940
▁cath	-13941
▁ther	-13942
▁parag	-13943
▁worse	-13944
巴勒斯坦难民	-13945
idation	-13946
▁compli	-13947
▁theore	-13948
ondition	-13949
▁permits	-13950
▁regrets	-13951
▁forecast	-13952
▁economics	-13953
▁finalized	-13954
▁recruited	-13955
▁australian	-13956
▁imperative	-13957
▁stipulated	-13958
▁destination	-13959
▁accessibility	-13960
▁concentration	-13961
不对	-13962
乐观	-13963
六个	-13964
吸毒	-13965
多元	-13966
将被	-13967
慈善	-13968
教会	-13969
无关	-13970
早上	-13971
更换	-13972
超越	-13973
逆转	-13974
遭遇	-13975
met	-13976
不应该	-13977
中美洲	-13978
和美国	-13979
已开始	-13980
所谓的	-13981
概述了	-13982
非正规	-13983
osen	-13984
世纪议程	-13985
和平协定	-13986
我们可以	-13987
(2009	-13988
ouses	-13989
▁1983	-13990
▁faso	-13991
▁hond	-13992
外地办事处	-13993
▁crops	-13994
▁novel	-13995
compass	-13996
▁aggreg	-13997
▁discre	-13998
▁preamb	-13999
▁sahara	-14000
方面取得的进展	-14001
entially	-14002
▁burkina	-14003
▁stopped	-14004
不扩散核武器条约	-14005
▁ecosystems	-14006
▁insecurity	-14007
▁presidents	-14008
▁establishes	-14009
▁satisfactory	-14010
▁methodologies	-14011
▁stabilization	-14012
动议	-14013
对你	-14014
将要	-14015
心脏	-14016
所占	-14017
艰难	-14018
金钱	-14019
你知道	-14020
召开的	-14021
并支持	-14022
并要求	-14023
提到了	-14024
本国的	-14025
申请人	-14026
的公司	-14027
的许多	-14028
的趋势	-14029
行政区	-14030
预防性	-14031
▁"4.	-14032
▁bio	-14033
为联合国	-14034
提供的资料	-14035
设立了一个	-14036
▁fired	-14037
▁frank	-14038
▁owner	-14039
提供技术援助	-14040
▁approve	-14041
▁flowers	-14042
▁routine	-14043
▁satisfy	-14044
▁pleasure	-14045
▁delivering	-14046
▁geographic	-14047
▁systematically	-14048
5)	-14049
也要	-14050
但却	-14051
团长	-14052
外空	-14053
太太	-14054
法外	-14055
澳门	-14056
炸弹	-14057
联利	-14058
设有	-14059
闭门	-14060
马克	-14061
130	-14062
gar	-14063
决定的	-14064
所载的	-14065
没有人	-14066
签署的	-14067
进出口	-14068
▁ine	-14069
▁ltd	-14070
▁unn	-14071
万美元的	-14072
所有这些	-14073
未成年人	-14074
法律文书	-14075
很大程度上	-14076
rating	-14077
▁petro	-14078
货币基金组织	-14079
▁adding	-14080
▁秘书长的报告	-14081
▁frequent	-14082
▁monteneg	-14083
▁supposed	-14084
▁interface	-14085
▁harmonized	-14086
▁insolvency	-14087
▁limitation	-14088
▁separately	-14089
▁cultivation	-14090
▁inhabitants	-14091
你就	-14092
借此	-14093
减免	-14094
和他	-14095
多项	-14096
延迟	-14097
木材	-14098
象征	-14099
son	-14100
ura	-14101
voy	-14102
▁区域	-14103
▁页次	-14104
也不会	-14105
妇女署	-14106
批准的	-14107
措施和	-14108
的一份	-14109
饮用水	-14110
erto	-14111
kers	-14112
olic	-14113
▁idb	-14114
刑事法庭	-14115
是否可以	-14116
被认为是	-14117
负面影响	-14118
风险管理	-14119
-2001	-14120
ahiri	-14121
▁grew	-14122
▁wine	-14123
▁sheet	-14124
科索沃特派团	-14125
rolment	-14126
▁guilty	-14127
▁pieces	-14128
▁utmost	-14129
▁ranging	-14130
▁audience	-14131
▁confront	-14132
▁painting	-14133
▁maternity	-14134
▁demographic	-14135
▁exclusively	-14136
▁preparedness	-14137
▁disaggregated	-14138
zz	-14139
▁T	-14140
上学	-14141
作战	-14142
到的	-14143
实在	-14144
尔摩	-14145
强的	-14146
恶劣	-14147
我说	-14148
率的	-14149
生长	-14150
警官	-14151
过分	-14152
颁发	-14153
饮食	-14154
▁"7	-14155
了这些	-14156
并强调	-14157
研究的	-14158
第十二	-14159
▁79.	-14160
▁jes	-14161
文职人员	-14162
毫无疑问	-14163
继续审议	-14164
缔约国的	-14165
这项工作	-14166
/2008	-14167
▁earn	-14168
▁mary	-14169
▁pose	-14170
▁我们必须	-14171
▁cuban	-14172
▁skill	-14173
▁spite	-14174
日内瓦办事处	-14175
▁seeing	-14176
促进和保护人权	-14177
▁arrival	-14178
▁degrees	-14179
▁preserv	-14180
▁privacy	-14181
▁branches	-14182
▁mitigate	-14183
▁paraguay	-14184
▁secondly	-14185
▁occasions	-14186
▁最	-14187
三项	-14188
严峻	-14189
但我	-14190
公职	-14191
划分	-14192
卡拉	-14193
和大	-14194
徒刑	-14195
所提	-14196
把他	-14197
撤出	-14198
检组	-14199
申报	-14200
警卫	-14201
oys	-14202
▁na	-14203
二十一	-14204
发出的	-14205
对儿童	-14206
/60/	-14207
raid	-14208
tery	-14209
▁.17	-14210
▁400	-14211
▁yel	-14212
内部审计	-14213
日星期五	-14214
的一系列	-14215
antly	-14216
olese	-14217
under	-14218
▁gift	-14219
▁gren	-14220
实质性会议	-14221
监测和评价	-14222
经济委员会	-14223
首脑会议的	-14224
▁coerc	-14225
▁plane	-14226
▁relax	-14227
区域和次区域	-14228
▁steady	-14229
▁horizon	-14230
▁licence	-14231
▁eleventh	-14232
▁initiate	-14233
▁urgently	-14234
▁visiting	-14235
▁advancing	-14236
▁christmas	-14237
▁obtaining	-14238
▁performing	-14239
▁formulating	-14240
hi	-14241
元素	-14242
同上	-14243
名为	-14244
员的	-14245
城镇	-14246
救援	-14247
族塞	-14248
欧安	-14249
理念	-14250
迫使	-14251
包容性	-14252
司法部	-14253
实现了	-14254
的程度	-14255
1373	-14256
养恤基金	-14257
摩尔多瓦	-14258
aires	-14259
阿拉伯联合	-14260
▁tobac	-14261
问题国际法庭	-14262
iencies	-14263
▁colour	-14264
▁choices	-14265
▁slavery	-14266
▁answered	-14267
▁auspices	-14268
▁familiar	-14269
▁permission	-14270
▁integrating	-14271
CD	-14272
fc	-14273
人体	-14274
住所	-14275
军火	-14276
分列	-14277
动荡	-14278
国有	-14279
嫌疑	-14280
异常	-14281
捐赠	-14282
犯下	-14283
集会	-14284
-10	-14285
先生的	-14286
并将其	-14287
犯罪的	-14288
,2005	-14289
高级别会议	-14290
▁aside	-14291
▁namib	-14292
▁sized	-14293
一般事务人员	-14294
联合国系统内	-14295
ahiriya	-14296
▁advise	-14297
▁boards	-14298
▁insist	-14299
▁tobacco	-14300
▁differenti	-14301
▁jamahiriya	-14302
▁mozambique	-14303
WP	-14304
》)	-14305
一再	-14306
人物	-14307
加斯	-14308
提取	-14309
教堂	-14310
的和	-14311
虚拟	-14312
裂变	-14313
连贯	-14314
Gen	-14315
从而使	-14316
其任务	-14317
告诉你	-14318
和其它	-14319
的事实	-14320
的手段	-14321
的现象	-14322
的看法	-14323
fies	-14324
▁scr	-14325
可能需要	-14326
andan	-14327
▁1978	-14328
▁dont	-14329
urning	-14330
▁satur	-14331
▁行预咨委会	-14332
▁therap	-14333
▁analyse	-14334
在本报告所述期间	-14335
▁accuracy	-14336
▁realistic	-14337
▁statutory	-14338
▁originally	-14339
▁foundations	-14340
▁preservation	-14341
在各	-14342
大多	-14343
感情	-14344
服装	-14345
率为	-14346
谈论	-14347
进了	-14348
▁gm	-14349
▁基于	-14350
刑法典	-14351
协调会	-14352
参与者	-14353
号法律	-14354
和大会	-14355
地中海	-14356
的最高	-14357
的证据	-14358
第三方	-14359
评估和	-14360
▁"3.	-14361
▁我们还	-14362
保护平民	-14363
务委员会	-14364
西撒哈拉	-14365
请秘书处	-14366
(2010	-14367
▁evac	-14368
▁uncc	-14369
aments	-14370
▁attor	-14371
▁magaz	-14372
▁plate	-14373
▁resil	-14374
▁usual	-14375
感到关切的是	-14376
ortions	-14377
▁afraid	-14378
▁finish	-14379
▁forese	-14380
▁muslim	-14381
▁virgin	-14382
▁weekly	-14383
▁affects	-14384
▁founded	-14385
▁unified	-14386
▁warrant	-14387
▁gathered	-14388
▁automatic	-14389
▁typically	-14390
▁literature	-14391
▁deprivation	-14392
▁sufficiently	-14393
SB	-14394
dy	-14395
分开	-14396
名册	-14397
团伙	-14398
并由	-14399
接纳	-14400
架构	-14401
标记	-14402
用尽	-14403
让他	-14404
bul	-14405
▁wg	-14406
▁xv	-14407
▁那些	-14408
以实现	-14409
债权人	-14410
历史上	-14411
在非洲	-14412
多年来	-14413
应确保	-14414
所有权	-14415
放射性	-14416
条件的	-14417
的地位	-14418
美国和	-14419
这就是	-14420
ager	-14421
ogen	-14422
zhou	-14423
▁74.	-14424
所产生的	-14425
所有有关	-14426
没有得到	-14427
联黎部队	-14428
这一目标	-14429
alian	-14430
gland	-14431
ricts	-14432
的能力建设	-14433
联刚特派团	-14434
ormous	-14435
▁bread	-14436
▁route	-14437
▁virus	-14438
拟议方案预算	-14439
▁minors	-14440
宣言和行动纲领	-14441
▁genetic	-14442
▁partial	-14443
▁pillars	-14444
▁seekers	-14445
▁computers	-14446
▁everybody	-14447
▁newspaper	-14448
▁assignment	-14449
▁montenegro	-14450
▁networking	-14451
▁controlling	-14452
▁exceptional	-14453
▁participatory	-14454
尔斯	-14455
抵抗	-14456
权限	-14457
模糊	-14458
死了	-14459
股东	-14460
衰退	-14461
阿卜	-14462
哥尔摩	-14463
宗教或	-14464
意义的	-14465
日生效	-14466
的人力	-14467
训研所	-14468
outi	-14469
requ	-14470
rust	-14471
▁.20	-14472
▁.25	-14473
▁coc	-14474
▁sed	-14475
▁tok	-14476
举行一次	-14477
人民法院	-14478
通过一项	-14479
uania	-14480
▁wing	-14481
国家办事处	-14482
斯德哥尔摩	-14483
udence	-14484
▁broke	-14485
▁imbal	-14486
▁plain	-14487
▁unmil	-14488
reshold	-14489
▁handed	-14490
▁tackle	-14491
维持和平特派团	-14492
iliation	-14493
▁albania	-14494
▁fissile	-14495
▁iceland	-14496
▁infring	-14497
▁iranian	-14498
▁momentum	-14499
▁gratitude	-14500
▁discovered	-14501
尽力	-14502
文献	-14503
本着	-14504
遗留	-14505
重叠	-14506
10%	-14507
各自的	-14508
和培训	-14509
将这些	-14510
的公共	-14511
的和平	-14512
的提议	-14513
的长期	-14514
经共体	-14515
mans	-14516
▁73.	-14517
▁awa	-14518
中小企业	-14519
日星期一	-14520
法律框架	-14521
被拘留者	-14522
这一进程	-14523
/2003	-14524
ulted	-14525
▁drag	-14526
▁mete	-14527
▁rock	-14528
一般性辩论	-14529
apping	-14530
gments	-14531
▁asean	-14532
▁loved	-14533
▁matri	-14534
发展中国家和	-14535
和非政府组织	-14536
▁resume	-14537
▁screen	-14538
▁convers	-14539
▁license	-14540
▁obliged	-14541
▁profits	-14542
▁analyzed	-14543
▁ceremony	-14544
▁feasible	-14545
▁printing	-14546
▁pursuing	-14547
▁tracking	-14548
▁districts	-14549
▁lithuania	-14550
▁normative	-14551
▁threshold	-14552
▁negotiated	-14553
▁calculation	-14554
▁surrounding	-14555
个体	-14556
以供	-14557
博物	-14558
吉布	-14559
携带	-14560
无需	-14561
是要	-14562
标签	-14563
活力	-14564
记住	-14565
重组	-14566
▁也许	-14567
以确定	-14568
我可以	-14569
打电话	-14570
的产品	-14571
的价格	-14572
的过程	-14573
1967	-14574
▁000	-14575
▁pup	-14576
三分之一	-14577
各项建议	-14578
政府官员	-14579
的受害者	-14580
CEDAW	-14581
naire	-14582
▁exac	-14583
enable	-14584
▁alien	-14585
▁dimin	-14586
▁escwa	-14587
科技咨询机构	-14588
▁domain	-14589
▁flying	-14590
▁planet	-14591
▁deficit	-14592
▁kilomet	-14593
▁neutral	-14594
2004-2005	-14595
▁reminded	-14596
▁superior	-14597
▁tensions	-14598
▁abolition	-14599
▁installation	-14600
/9	-14601
、1	-14602
不用	-14603
动作	-14604
和水	-14605
姓名	-14606
施行	-14607
既定	-14608
清晰	-14609
看作	-14610
租赁	-14611
穿着	-14612
▁审查	-14613
及有关	-14614
得到的	-14615
是非常	-14616
的市场	-14617
atal	-14618
umin	-14619
▁140	-14620
▁76.	-14621
▁ash	-14622
▁icc	-14623
国家方案	-14624
未经表决	-14625
目前为止	-14626
onduc	-14627
▁我们希望	-14628
▁cheap	-14629
▁smile	-14630
人道主义事务	-14631
检察官办公室	-14632
联合国秘书长	-14633
非政府组织和	-14634
▁bullet	-14635
▁caught	-14636
阿拉伯联合酋长	-14637
▁awarded	-14638
▁football	-14639
非洲发展新伙伴关系	-14640
▁obviously	-14641
▁friendship	-14642
▁submitting	-14643
▁contributes	-14644
,(	-14645
上周	-14646
中部	-14647
为在	-14648
乡村	-14649
但他	-14650
器官	-14651
我谨	-14652
指派	-14653
游客	-14654
都将	-14655
▁ow	-14656
▁人权	-14657
不确定	-14658
也可能	-14659
博物馆	-14660
天然气	-14661
并且在	-14662
性问题	-14663
的一致	-14664
编写的	-14665
美国人	-14666
高兴地	-14667
/67/	-14668
▁"5.	-14669
资料来源	-14670
board	-14671
ching	-14672
▁cited	-14673
▁smart	-14674
▁terri	-14675
ishment	-14676
▁incons	-14677
▁exacerb	-14678
▁virtual	-14679
▁prohibit	-14680
▁revenues	-14681
▁departure	-14682
▁beneficial	-14683
▁continuity	-14684
▁executives	-14685
▁explicitly	-14686
▁certificates	-14687
▁considerably	-14688
▁marginalized	-14689
ón	-14690
两级	-14691
仍未	-14692
但这	-14693
全文	-14694
养老	-14695
加利	-14696
品质	-14697
奇怪	-14698
奥斯	-14699
年第	-14700
报复	-14701
提倡	-14702
有个	-14703
概况	-14704
注射	-14705
海盗	-14706
等于	-14707
转化	-14708
高速	-14709
las	-14710
▁预计	-14711
举办的	-14712
各国在	-14713
工业化	-14714
成立的	-14715
我们就	-14716
数据和	-14717
日关于	-14718
武器的	-14719
的状况	-14720
bian	-14721
▁bow	-14722
▁dow	-14723
普通照会	-14724
研究中心	-14725
采取步骤	-14726
▁seiz	-14727
▁shad	-14728
▁arsen	-14729
▁codes	-14730
▁heaven	-14731
▁walked	-14732
▁bahrain	-14733
▁excluded	-14734
▁validity	-14735
▁confident	-14736
▁launching	-14737
▁hostilities	-14738
▁questionnaire	-14739
一人	-14740
农场	-14741
原来	-14742
学者	-14743
学金	-14744
巴林	-14745
心里	-14746
打破	-14747
接待	-14748
撤离	-14749
构想	-14750
概览	-14751
苹果	-14752
都应	-14753
配备	-14754
160	-14755
log	-14756
▁每个	-14757
出来的	-14758
承包商	-14759
生活中	-14760
看上去	-14761
组织了	-14762
▁在过去	-14763
令人满意	-14764
新闻中心	-14765
进一步的	-14766
高级官员	-14767
▁glad	-14768
▁wasn	-14769
助理秘书长	-14770
▁aspir	-14771
▁benin	-14772
▁deple	-14773
▁lever	-14774
▁lingu	-14775
issance	-14776
▁lesson	-14777
妇女地位委员会	-14778
▁formula	-14779
▁redress	-14780
▁urgency	-14781
▁extending	-14782
▁prevailing	-14783
▁communicate	-14784
▁modernization	-14785
mn	-14786
一支	-14787
估算	-14788
作家	-14789
冰岛	-14790
分裂	-14791
原始	-14792
可否	-14793
妥善	-14794
孕妇	-14795
小额	-14796
延误	-14797
既然	-14798
更正	-14799
月和	-14800
确切	-14801
结余	-14802
还会	-14803
顺序	-14804
ote	-14805
rar	-14806
unk	-14807
作用的	-14808
分别为	-14809
有很多	-14810
的自由	-14811
都拉斯	-14812
领域中	-14813
ests	-14814
illa	-14815
▁109	-14816
种族灭绝	-14817
iment	-14818
以及联合国	-14819
▁unmis	-14820
▁multid	-14821
▁silver	-14822
▁viable	-14823
boundary	-14824
▁holiday	-14825
▁budgeted	-14826
▁reliance	-14827
▁appraisal	-14828
▁divisions	-14829
▁inconsist	-14830
▁transboundary	-14831
不人道或有辱人格的待遇或处罚	-14832
ER	-14833
IV	-14834
也能	-14835
他就	-14836
列支	-14837
号和	-14838
处以	-14839
收购	-14840
等级	-14841
论点	-14842
采访	-14843
170	-14844
50%	-14845
bor	-14846
fth	-14847
lla	-14848
▁pv	-14849
▁确保	-14850
反对派	-14851
有任何	-14852
给我们	-14853
继续与	-14854
许多人	-14855
▁113	-14856
▁72.	-14857
具有法律	-14858
各缔约方	-14859
妇女权利	-14860
条规定的	-14861
问题进行	-14862
▁"""(	-14863
▁edge	-14864
▁meat	-14865
▁另一方面	-14866
可再生能源	-14867
提供必要的	-14868
面临的挑战	-14869
▁guess	-14870
▁driver	-14871
▁declare	-14872
▁journey	-14873
▁kuwaiti	-14874
▁pledges	-14875
▁sending	-14876
▁synthes	-14877
▁abortion	-14878
▁allocate	-14879
▁minimize	-14880
▁christian	-14881
▁incidence	-14882
▁operators	-14883
▁reiterate	-14884
▁observance	-14885
▁appreciated	-14886
sa	-14887
体罚	-14888
侵权	-14889
头发	-14890
它对	-14891
导航	-14892
市政	-14893
得很	-14894
智能	-14895
海牙	-14896
燃烧	-14897
癌症	-14898
精力	-14899
组建	-14900
老挝	-14901
聚集	-14902
股份	-14903
选定	-14904
附录	-14905
ror	-14906
▁你的	-14907
▁小组	-14908
▁那么	-14909
名成员	-14910
和设备	-14911
基督教	-14912
服务器	-14913
理事国	-14914
米尼加	-14915
运动员	-14916
owas	-14917
▁.19	-14918
▁在这一	-14919
执行秘书	-14920
特别政治	-14921
联邦政府	-14922
预防犯罪	-14923
agues	-14924
▁gent	-14925
联合检查组	-14926
▁remit	-14927
▁stead	-14928
▁undcp	-14929
▁clause	-14930
▁yellow	-14931
aneously	-14932
▁namibia	-14933
▁opposed	-14934
▁passing	-14935
▁plastic	-14936
▁atlantic	-14937
▁download	-14938
▁updating	-14939
▁adherence	-14940
▁comprises	-14941
▁preceding	-14942
▁readiness	-14943
▁assumption	-14944
▁compromise	-14945
▁repeatedly	-14946
▁traditions	-14947
▁feasibility	-14948
▁所	-14949
人生	-14950
从中	-14951
吸取	-14952
尊敬	-14953
异议	-14954
拉加	-14955
拉脱	-14956
核算	-14957
法文	-14958
混乱	-14959
的同	-14960
这儿	-14961
▁强调	-14962
一致的	-14963
了这一	-14964
塔尼亚	-14965
大会的	-14966
应当在	-14967
月期间	-14968
特定的	-14969
的土地	-14970
的增长	-14971
的支助	-14972
的收入	-14973
的改革	-14974
直升机	-14975
atis	-14976
wood	-14977
▁cla	-14978
基本建设	-14979
宣传活动	-14980
已经开始	-14981
数据收集	-14982
洪都拉斯	-14983
清洁发展	-14984
警察部队	-14985
/2007	-14986
iscri	-14987
▁rare	-14988
▁sequ	-14989
▁wang	-14990
▁澳大利亚	-14991
alling	-14992
▁delic	-14993
▁hague	-14994
▁asking	-14995
▁ecowas	-14996
▁somali	-14997
▁surviv	-14998
▁wouldn	-14999
▁disappo	-15000
▁lending	-15001
▁passage	-15002
▁poorest	-15003
▁wishing	-15004
2012-2013	-15005
naissance	-15006
▁decisive	-15007
▁earnings	-15008
▁opposite	-15009
▁separated	-15010
▁conversion	-15011
▁photograph	-15012
▁consistency	-15013
▁policymakers	-15014
__	-15015
ew	-15016
不幸	-15017
中断	-15018
多斯	-15019
如同	-15020
对在	-15021
将该	-15022
彼得	-15023
所能	-15024
抵押	-15025
救灾	-15026
明年	-15027
是很	-15028
有力	-15029
构建	-15030
案中	-15031
(""	-15032
/50	-15033
▁法院	-15034
、""	-15035
以满足	-15036
和占领	-15037
工程师	-15038
持久性	-15039
暴力和	-15040
联检组	-15041
▁.45	-15042
▁70.	-15043
▁fix	-15044
▁hub	-15045
▁row	-15046
▁伊拉克	-15047
司法系统	-15048
圆桌会议	-15049
绝大多数	-15050
闭门会议	-15051
(2002	-15052
▁duly	-15053
就决议草案	-15054
▁subsc	-15055
阿拉伯利比亚	-15056
▁pretty	-15057
▁commend	-15058
▁convene	-15059
▁evident	-15060
▁justify	-15061
联合国开发计划署	-15062
▁publicly	-15063
▁combatants	-15064
▁kyrgyzstan	-15065
▁stereotypes	-15066
▁confidential	-15067
▁possibilities	-15068
下载	-15069
中立	-15070
主人	-15071
体面	-15072
区内	-15073
复制	-15074
媒介	-15075
抱怨	-15076
措辞	-15077
智慧	-15078
概要	-15079
清洗	-15080
焦点	-15081
牺牲	-15082
私有	-15083
通道	-15084
20%	-15085
iat	-15086
irt	-15087
off	-15088
伟大的	-15089
复员和	-15090
战略的	-15091
的联系	-15092
▁与会者	-15093
审查会议	-15094
拉脱维亚	-15095
提供技术	-15096
enger	-15097
▁ease	-15098
人口与发展	-15099
开展的工作	-15100
▁doctr	-15101
▁merch	-15102
▁photo	-15103
▁rooms	-15104
▁人权理事会	-15105
▁meteor	-15106
▁admitted	-15107
▁epidemic	-15108
▁feelings	-15109
▁proposes	-15110
▁treasury	-15111
1373(2001)	-15112
▁condemned	-15113
▁justified	-15114
▁portfolio	-15115
▁spokesman	-15116
侦察	-15117
假定	-15118
发病	-15119
复合	-15120
复员	-15121
她在	-15122
枪支	-15123
海底	-15124
激烈	-15125
牵头	-15126
透过	-15127
预先	-15128
▁应该	-15129
▁至于	-15130
建立在	-15131
的局势	-15132
▁我希望	-15133
什么时候	-15134
安全部门	-15135
所有其他	-15136
最大限度	-15137
统计数字	-15138
,2006	-15139
/2005	-15140
entic	-15141
ticed	-15142
▁calm	-15143
▁djib	-15144
▁salt	-15145
▁sons	-15146
▁ties	-15147
国家和国际	-15148
经济共同体	-15149
erated	-15150
▁births	-15151
▁indisp	-15152
▁panama	-15153
▁solely	-15154
▁jurispr	-15155
▁listing	-15156
atization	-15157
▁deposits	-15158
▁deterior	-15159
▁databases	-15160
▁recurrent	-15161
▁discretion	-15162
▁executions	-15163
▁interviews	-15164
▁navigation	-15165
▁redeployment	-15166
▁diversification	-15167
dh	-15168
会期	-15169
便于	-15170
偏见	-15171
内阁	-15172
士登	-15173
宇宙	-15174
对方	-15175
惩处	-15176
意志	-15177
慢慢	-15178
模块	-15179
自杀	-15180
致使	-15181
要么	-15182
这将	-15183
远程	-15184
退出	-15185
震惊	-15186
顾及	-15187
三个月	-15188
代表和	-15189
修订的	-15190
列支敦	-15191
因为他	-15192
5000	-15193
word	-15194
代表发言	-15195
战略框架	-15196
的过程中	-15197
▁busy	-15198
▁dish	-15199
列支敦士登	-15200
西亚经社会	-15201
▁asser	-15202
▁buyer	-15203
▁graph	-15204
▁maced	-15205
▁argued	-15206
▁chosen	-15207
▁faster	-15208
▁irresp	-15209
▁unknow	-15210
维持和平行动的	-15211
▁twelfth	-15212
▁apportion	-15213
▁instability	-15214
▁安	-15215
付出	-15216
何时	-15217
发明	-15218
将军	-15219
展望	-15220
指责	-15221
损坏	-15222
易受	-15223
杰克	-15224
此事	-15225
生意	-15226
精简	-15227
职员	-15228
身心	-15229
还能	-15230
emb	-15231
mat	-15232
▁cu	-15233
▁hk	-15234
亲爱的	-15235
人民币	-15236
十三条	-15237
和责任	-15238
工人的	-15239
并呼吁	-15240
是不是	-15241
本公约	-15242
的因素	-15243
的详细	-15244
/68/	-15245
otal	-15246
▁122	-15247
▁bay	-15248
▁ble	-15249
▁eca	-15250
▁ped	-15251
保护儿童	-15252
秘书长在	-15253
/2010	-15254
ingly	-15255
▁amaz	-15256
tiality	-15257
▁hardly	-15258
▁latvia	-15259
▁tested	-15260
▁testim	-15261
▁conserv	-15262
▁cypriot	-15263
▁prolong	-15264
▁venture	-15265
▁formally	-15266
▁sixtieth	-15267
▁synergies	-15268
▁predictable	-15269
▁reinforcing	-15270
)《	-15271
4,	-15272
GC	-15273
IC	-15274
ek	-15275
▁无	-15276
中止	-15277
分段	-15278
向你	-15279
坚信	-15280
基层	-15281
塔利	-15282
时说	-15283
演变	-15284
租金	-15285
街头	-15286
边的	-15287
鉴定	-15288
dad	-15289
san	-15290
tra	-15291
▁希望	-15292
▁调查	-15293
▁针对	-15294
回顾其	-15295
应用于	-15296
房地产	-15297
的财政	-15298
第四十	-15299
管理国	-15300
而受到	-15301
ifts	-15302
▁160	-15303
▁特别是	-15304
▁这就是	-15305
是联合国	-15306
inter	-15307
▁osce	-15308
▁smes	-15309
经社理事会	-15310
▁shoes	-15311
▁disord	-15312
▁fabric	-15313
▁resett	-15314
▁arbitral	-15315
▁unlikely	-15316
▁authentic	-15317
▁returning	-15318
▁restaurant	-15319
上市	-15320
先决	-15321
可供	-15322
应为	-15323
戈兰	-15324
更具	-15325
核证	-15326
究竟	-15327
素质	-15328
行径	-15329
/20	-15330
140	-15331
15.	-15332
uss	-15333
▁ix	-15334
▁一位	-15335
▁促进	-15336
以协助	-15337
可能对	-15338
它们在	-15339
巴拿马	-15340
情况和	-15341
日之前	-15342
更容易	-15343
生产的	-15344
裁军和	-15345
负责任	-15346
路线图	-15347
那就是	-15348
马拉维	-15349
▁lod	-15350
▁wis	-15351
为基础的	-15352
权力下放	-15353
道德操守	-15354
▁evil	-15355
▁kiss	-15356
区域办事处	-15357
▁inali	-15358
▁shell	-15359
▁unoci	-15360
▁allevi	-15361
▁advised	-15362
▁typical	-15363
▁honduras	-15364
▁arguments	-15365
▁measuring	-15366
▁indication	-15367
▁summarized	-15368
▁unemployed	-15369
▁inalienable	-15370
▁livelihoods	-15371
▁nonetheless	-15372
▁pornography	-15373
▁stakeholder	-15374
▁automatically	-15375
与各	-15376
今晚	-15377
保罗	-15378
几次	-15379
后代	-15380
外债	-15381
大小	-15382
就其	-15383
次序	-15384
法语	-15385
的两	-15386
监控	-15387
西欧	-15388
输出	-15389
.9/	-15390
▁06	-15391
▁一旦	-15392
二氧化	-15393
企业家	-15394
但没有	-15395
其他人	-15396
制造商	-15397
并建议	-15398
成果的	-15399
文件和	-15400
月以来	-15401
的声音	-15402
约束力	-15403
要求在	-15404
这些人	-15405
不可剥夺	-15406
号一般性	-15407
日星期四	-15408
闭会期间	-15409
预期成绩	-15410
(2007	-15411
▁fool	-15412
▁lots	-15413
ranean	-15414
▁champ	-15415
▁fault	-15416
▁marry	-15417
▁taste	-15418
世界卫生组织	-15419
General	-15420
▁stabil	-15421
境内流离失所者	-15422
▁michael	-15423
▁benchmar	-15424
▁unaccept	-15425
▁attempted	-15426
▁vacancies	-15427
▁experimental	-15428
一件	-15429
依存	-15430
势头	-15431
印象	-15432
开了	-15433
日前	-15434
流量	-15435
禁令	-15436
立刻	-15437
聘用	-15438
这笔	-15439
lac	-15440
▁教育	-15441
协调厅	-15442
向所有	-15443
提高对	-15444
无线电	-15445
是如何	-15446
款规定	-15447
民主党	-15448
被称为	-15449
ente	-15450
http	-15451
late	-15452
ller	-15453
▁117	-15454
▁180	-15455
▁adm	-15456
▁rid	-15457
▁本组织	-15458
区域组织	-15459
电子商务	-15460
这种做法	-15461
▁maur	-15462
▁tank	-15463
十七届会议	-15464
工作人员和	-15465
常设委员会	-15466
▁jesus	-15467
▁smoke	-15468
▁towns	-15469
▁deteri	-15470
▁phases	-15471
▁robust	-15472
▁stimul	-15473
人权事务委员会	-15474
essional	-15475
▁captain	-15476
▁courage	-15477
▁stories	-15478
▁appendix	-15479
▁clothing	-15480
▁electron	-15481
▁dominican	-15482
▁gathering	-15483
▁resolving	-15484
▁concession	-15485
▁mechanical	-15486
▁deterioration	-15487
▁subcommission	-15488
封信	-15489
少女	-15490
归还	-15491
汤姆	-15492
电池	-15493
看出	-15494
起到	-15495
载列	-15496
阵线	-15497
院长	-15498
/16	-15499
kok	-15500
以避免	-15501
吉布提	-15502
和一个	-15503
执行和	-15504
本区域	-15505
的主题	-15506
的最终	-15507
相同的	-15508
paid	-15509
▁aer	-15510
区域中心	-15511
危害人类	-15512
我们希望	-15513
等方面的	-15514
继续支持	-15515
alled	-15516
icial	-15517
▁amis	-15518
▁lady	-15519
▁till	-15520
▁vers	-15521
▁代理主席	-15522
▁dance	-15523
▁overl	-15524
▁prote	-15525
▁roots	-15526
▁tight	-15527
▁unccd	-15528
▁unequ	-15529
▁woods	-15530
工作人员薪金	-15531
ensable	-15532
▁fallen	-15533
▁multip	-15534
▁seller	-15535
▁verbale	-15536
▁imported	-15537
▁utilized	-15538
▁watching	-15539
▁diagnosis	-15540
▁exceptions	-15541
▁rapporteurs	-15542
▁coordinators	-15543
▁K	-15544
世卫	-15545
为主	-15546
代夫	-15547
使我	-15548
供水	-15549
克尔	-15550
出租	-15551
分至	-15552
家具	-15553
指明	-15554
是你	-15555
海军	-15556
辅导	-15557
运载	-15558
还为	-15559
进去	-15560
鈥檚	-15561
▁具体	-15562
▁利用	-15563
化合物	-15564
和宗教	-15565
强大的	-15566
民众国	-15567
的各个	-15568
等领域	-15569
/53/	-15570
/54/	-15571
aker	-15572
▁118	-15573
关注的是	-15574
战斗人员	-15575
的支持下	-15576
行政管理	-15577
/2009	-15578
▁1949	-15579
▁maln	-15580
▁tall	-15581
▁youn	-15582
的工作方案	-15583
ortive	-15584
▁nongo	-15585
▁tough	-15586
恐怖主义行为	-15587
执行情况报告	-15588
▁devast	-15589
▁editor	-15590
▁escape	-15591
▁module	-15592
▁pollut	-15593
▁revers	-15594
巴勒斯坦被占领土	-15595
▁pressing	-15596
▁unnecess	-15597
▁examining	-15598
▁exercised	-15599
▁fostering	-15600
▁monitored	-15601
▁perceived	-15602
▁relatives	-15603
▁socialist	-15604
▁continuously	-15605
▁jurisprudence	-15606
1-	-15607
一事	-15608
严厉	-15609
北约	-15610
吸烟	-15611
天内	-15612
夫妇	-15613
尸体	-15614
布罗	-15615
扩张	-15616
拍卖	-15617
接到	-15618
收取	-15619
收回	-15620
施政	-15621
点的	-15622
特区	-15623
瓦纳	-15624
生境	-15625
生成	-15626
系数	-15627
编纂	-15628
观众	-15629
进来	-15630
鱼类	-15631
.18	-15632
▁上述	-15633
发挥了	-15634
和个人	-15635
警察局	-15636
wana	-15637
▁600	-15638
▁hey	-15639
▁认识到	-15640
会员国的	-15641
作为一种	-15642
医疗服务	-15643
国家机构	-15644
ropri	-15645
▁disb	-15646
▁merg	-15647
▁peer	-15648
engers	-15649
▁orbit	-15650
▁timet	-15651
清洁发展机制	-15652
tertain	-15653
▁landsc	-15654
▁compact	-15655
▁descent	-15656
▁mankind	-15657
▁skilled	-15658
▁festival	-15659
▁releases	-15660
▁rendered	-15661
▁sciences	-15662
▁slovakia	-15663
▁thoughts	-15664
▁curricula	-15665
▁impartial	-15666
▁colleagues	-15667
▁kilometres	-15668
▁advertising	-15669
▁complicated	-15670
▁economically	-15671
▁indispensable	-15672
下了	-15673
不变	-15674
体重	-15675
地质	-15676
堕胎	-15677
护照	-15678
浏览	-15679
路上	-15680
黑暗	-15681
"")	-15682
180	-15683
awa	-15684
unt	-15685
▁文件	-15686
▁社会	-15687
一开始	-15688
之所以	-15689
和多边	-15690
在促进	-15691
怎么样	-15692
时间内	-15693
构成了	-15694
的传统	-15695
的评估	-15696
结构和	-15697
青年人	-15698
assy	-15699
onal	-15700
▁arc	-15701
▁hen	-15702
事态发展	-15703
人权教育	-15704
可能导致	-15705
跨国公司	-15706
▁ibid	-15707
▁reun	-15708
▁unex	-15709
联合国发展	-15710
▁libya	-15711
▁dispro	-15712
▁notify	-15713
▁occurs	-15714
▁phrase	-15715
▁divorce	-15716
▁mediter	-15717
▁optimal	-15718
▁djibouti	-15719
▁executed	-15720
▁benefited	-15721
▁fulfilled	-15722
▁recipient	-15723
▁foreigners	-15724
打击跨国有组织犯罪公约	-15725
▁inadmissible	-15726
▁nongovernmental	-15727
▁J	-15728
了我	-15729
仍是	-15730
但不	-15731
使人	-15732
呈现	-15733
和与	-15734
和你	-15735
复兴	-15736
故意	-15737
本质	-15738
的好	-15739
者在	-15740
被判	-15741
订约	-15742
远的	-15743
降至	-15744
难题	-15745
.15	-15746
ila	-15747
▁附件	-15748
为确保	-15749
传染病	-15750
合作社	-15751
和消除	-15752
有效和	-15753
来解决	-15754
的最低	-15755
▁116	-15756
主管当局	-15757
国民议会	-15758
日星期三	-15759
heres	-15760
itely	-15761
viron	-15762
▁rand	-15763
▁wise	-15764
国家和区域	-15765
▁click	-15766
建立信任措施	-15767
certain	-15768
▁forever	-15769
▁circular	-15770
▁regulate	-15771
▁elaborate	-15772
▁stateless	-15773
▁upgrading	-15774
▁comparable	-15775
▁counterpar	-15776
▁accelerated	-15777
▁residential	-15778
▁justification	-15779
▁mediterranean	-15780
中最	-15781
争论	-15782
塑料	-15783
流通	-15784
监视	-15785
羁押	-15786
附上	-15787
cow	-15788
▁相反	-15789
》(《	-15790
也不能	-15791
以外的	-15792
军事和	-15793
塔利班	-15794
所说的	-15795
扩大到	-15796
环境中	-15797
的合法	-15798
研究了	-15799
通过其	-15800
apse	-15801
ette	-15802
hips	-15803
▁77.	-15804
儿童保护	-15805
全面禁止	-15806
因为这些	-15807
成果文件	-15808
索特派团	-15809
该缔约国	-15810
▁1960	-15811
▁adds	-15812
委员会在其	-15813
▁catal	-15814
▁meets	-15815
▁unpre	-15816
▁weigh	-15817
▁assure	-15818
▁lowest	-15819
▁proven	-15820
▁ruling	-15821
▁weaken	-15822
▁estonia	-15823
▁inherit	-15824
▁refusal	-15825
▁evaluated	-15826
▁intermedi	-15827
▁prosecute	-15828
▁commentary	-15829
▁elaborated	-15830
▁simulation	-15831
▁challenging	-15832
▁radioactive	-15833
▁confirmation	-15834
大不列颠及北爱尔兰联合王国	-15835
▁acknowledging	-15836
举报	-15837
付诸	-15838
季节	-15839
常见	-15840
手中	-15841
的对	-15842
自卫	-15843
贫民	-15844
can	-15845
主持下	-15846
二零零	-15847
和传播	-15848
巴多斯	-15849
时间的	-15850
解释说	-15851
0000	-15852
iban	-15853
▁121	-15854
▁hes	-15855
▁nan	-15856
因为他们	-15857
土著民族	-15858
地方政府	-15859
日星期二	-15860
更有效地	-15861
苏特派团	-15862
过渡时期	-15863
(2011	-15864
oning	-15865
ption	-15866
▁hate	-15867
▁hygi	-15868
▁pron	-15869
▁贸发会议	-15870
以法语发言	-15871
提出的问题	-15872
▁absten	-15873
▁lawful	-15874
▁pillar	-15875
▁server	-15876
▁unitar	-15877
▁bangkok	-15878
▁totally	-15879
▁excluding	-15880
▁proceeding	-15881
▁stipulates	-15882
▁supportive	-15883
2:	-15884
bc	-15885
人工	-15886
在你	-15887
境况	-15888
岗位	-15889
布拉	-15890
扮演	-15891
放松	-15892
新生	-15893
无限	-15894
森堡	-15895
英镑	-15896
说服	-15897
通胀	-15898
ado	-15899
▁,6	-15900
▁巴西	-15901
事件的	-15902
发现了	-15903
在其他	-15904
行动和	-15905
whel	-15906
▁ant	-15907
▁cos	-15908
▁ram	-15909
▁tac	-15910
农村妇女	-15911
发展基金	-15912
发展方案	-15913
提供咨询	-15914
法律制度	-15915
而采取的	-15916
,2008	-15917
,2009	-15918
▁lake	-15919
的国际合作	-15920
第四委员会	-15921
▁peter	-15922
▁vigor	-15923
▁bacter	-15924
▁deserv	-15925
▁george	-15926
▁luxemb	-15927
▁spoken	-15928
▁virtue	-15929
两年期方案预算	-15930
▁harmony	-15931
2006-2007	-15932
▁advocate	-15933
▁governed	-15934
▁congolese	-15935
▁announcement	-15936
▁concentrated	-15937
作法	-15938
卡尔	-15939
否决	-15940
处在	-15941
大批	-15942
抵消	-15943
摩亚	-15944
收养	-15945
灵魂	-15946
特权	-15947
确信	-15948
练习	-15949
见解	-15950
该部	-15951
隐私	-15952
▁py	-15953
▁已经	-15954
▁很多	-15955
▁这位	-15956
同性恋	-15957
和精神	-15958
应继续	-15959
战争罪	-15960
日开始	-15961
标准化	-15962
稳定的	-15963
第一章	-15964
萨摩亚	-15965
部队和	-15966
-201	-15967
▁cst	-15968
优先考虑	-15969
国际金融	-15970
培训课程	-15971
ested	-15972
▁cuts	-15973
▁alter	-15974
▁buying	-15975
▁tender	-15976
▁临时议程项目	-15977
复员和重返社会	-15978
▁assured	-15979
▁drafted	-15980
▁payable	-15981
▁shortly	-15982
▁appealed	-15983
▁overwhel	-15984
▁settings	-15985
▁trustees	-15986
▁describes	-15987
▁proactive	-15988
7%	-15989
7)	-15990
IN	-15991
PC	-15992
交叉	-15993
公告	-15994
参观	-15995
姑娘	-15996
思维	-15997
恐吓	-15998
惩治	-15999
所指	-16000
日程	-16001
波多	-16002
红色	-16003
评注	-16004
较大	-16005
里程	-16006
enh	-16007
usi	-16008
▁km	-16009
▁我在	-16010
可通过	-16011
和组织	-16012
增加的	-16013
尼日尔	-16014
并指出	-16015
星期三	-16016
的选择	-16017
见下文	-16018
flow	-16019
▁bis	-16020
▁vib	-16021
人民政府	-16022
先决条件	-16023
有效执行	-16024
权力机构	-16025
残疾儿童	-16026
,2007	-16027
etric	-16028
rific	-16029
▁mald	-16030
▁nato	-16031
▁subt	-16032
▁unus	-16033
十六届会议	-16034
十四届会议	-16035
和其他有关	-16036
bility	-16037
niture	-16038
▁artis	-16039
▁recyc	-16040
▁willi	-16041
在同次会议上	-16042
▁aliens	-16043
▁委员会注意到	-16044
cedented	-16045
▁taliban	-16046
▁tonight	-16047
▁chambers	-16048
▁parental	-16049
▁saturday	-16050
▁furniture	-16051
▁partially	-16052
▁processed	-16053
▁affordable	-16054
▁documented	-16055
▁reinforced	-16056
▁duplication	-16057
▁unacceptable	-16058
▁前	-16059
▁加	-16060
▁高	-16061
两人	-16062
军官	-16063
在为	-16064
均等	-16065
总共	-16066
斐济	-16067
热带	-16068
花园	-16069
蔓延	-16070
血管	-16071
▁03	-16072
控制和	-16073
机制和	-16074
系统中	-16075
预算和	-16076
/55/	-16077
1986	-16078
east	-16079
▁125	-16080
▁170	-16081
▁cmp	-16082
严重关切	-16083
使用武力	-16084
的代表团	-16085
范围内的	-16086
进行评估	-16087
/1999	-16088
itary	-16089
▁bagh	-16090
▁pand	-16091
条例和细则	-16092
特别会议的	-16093
部长级会议	-16094
erical	-16095
▁conce	-16096
联合国系统各	-16097
umbered	-16098
▁moscow	-16099
▁vessel	-16100
▁embassy	-16101
▁italian	-16102
▁silence	-16103
▁fiftieth	-16104
▁regulated	-16105
▁luxembourg	-16106
▁managerial	-16107
▁privileges	-16108
▁unprecedented	-16109
▁qualifications	-16110
.:	-16111
▁’	-16112
分支	-16113
到来	-16114
回合	-16115
州的	-16116
库曼	-16117
忽略	-16118
探测	-16119
有待	-16120
派出	-16121
联科	-16122
聪明	-16123
营销	-16124
解雇	-16125
iji	-16126
▁英国	-16127
农业和	-16128
卢森堡	-16129
和合作	-16130
并采取	-16131
报告了	-16132
替代品	-16133
的人士	-16134
蒙特雷	-16135
born	-16136
世界经济	-16137
公共卫生	-16138
得出结论	-16139
相互依存	-16140
社会服务	-16141
这些建议	-16142
,2004	-16143
▁mult	-16144
▁intra	-16145
▁stree	-16146
itement	-16147
▁outset	-16148
▁rental	-16149
▁unpaid	-16150
▁moldova	-16151
▁railway	-16152
▁samples	-16153
▁settled	-16154
▁thanked	-16155
▁unknown	-16156
可持续发展委员会	-16157
阿拉伯联合酋长国	-16158
mentioned	-16159
▁obstacle	-16160
▁operated	-16161
▁macedonia	-16162
▁medicines	-16163
▁substitute	-16164
▁impartiality	-16165
不动	-16166
乘客	-16167
其顿	-16168
内在	-16169
原料	-16170
可怕	-16171
式的	-16172
忆及	-16173
挑选	-16174
样子	-16175
的三	-16176
称赞	-16177
简直	-16178
职工	-16179
萨拉	-16180
裁减	-16181
读者	-16182
这对	-16183
长官	-16184
acc	-16185
nam	-16186
▁第六	-16187
一定要	-16188
不足以	-16189
中没有	-16190
以帮助	-16191
倾向于	-16192
加入了	-16193
各国的	-16194
和生产	-16195
土库曼	-16196
安全与	-16197
审议的	-16198
的补充	-16199
程度的	-16200
第三十	-16201
重申其	-16202
erge	-16203
mend	-16204
rick	-16205
▁75.	-16206
▁78.	-16207
▁ece	-16208
严重违反	-16209
得到加强	-16210
这些目标	-16211
重新安置	-16212
eared	-16213
sives	-16214
▁1979	-16215
▁aven	-16216
▁bots	-16217
十五届会议	-16218
▁Distr	-16219
▁induc	-16220
▁param	-16221
▁react	-16222
▁pestic	-16223
▁carrier	-16224
▁renewal	-16225
▁specify	-16226
▁younger	-16227
▁maximize	-16228
▁shipment	-16229
▁shortage	-16230
▁ascertain	-16231
▁placement	-16232
▁retention	-16233
▁demonstration	-16234
▁practitioners	-16235
▁N	-16236
变更	-16237
央行	-16238
审讯	-16239
强度	-16240
微笑	-16241
慷慨	-16242
把我	-16243
拯救	-16244
的女	-16245
空运	-16246
致命	-16247
详尽	-16248
iqu	-16249
不允许	-16250
代表性	-16251
和控制	-16252
将成为	-16253
按照第	-16254
歧视性	-16255
的角度	-16256
自治区	-16257
行为和	-16258
解释性	-16259
list	-16260
▁128	-16261
▁bin	-16262
▁cum	-16263
▁lao	-16264
▁ray	-16265
▁sid	-16266
▁une	-16267
任务规定	-16268
各项决议	-16269
政治事务	-16270
裂变材料	-16271
记录表决	-16272
达成共识	-16273
after	-16274
▁furn	-16275
▁gulf	-16276
▁meal	-16277
▁mere	-16278
ustion	-16279
▁bases	-16280
▁nutri	-16281
▁print	-16282
▁proud	-16283
残疾人权利公约	-16284
蒙特利尔议定书	-16285
▁hosting	-16286
▁dispropor	-16287
▁narcotics	-16288
▁realities	-16289
▁attributed	-16290
▁legitimacy	-16291
▁passengers	-16292
▁questioned	-16293
▁essentially	-16294
▁disappearances	-16295
AR	-16296
占有	-16297
发给	-16298
周末	-16299
姆斯	-16300
子上	-16301
将向	-16302
延期	-16303
我能	-16304
才会	-16305
有趣	-16306
此次	-16307
章节	-16308
纠纷	-16309
绳之	-16310
较少	-16311
不清楚	-16312
分列的	-16313
在实现	-16314
处理的	-16315
实体的	-16316
家公司	-16317
拟议的	-16318
目的地	-16319
转型期	-16320
雇佣军	-16321
需要有	-16322
▁ing	-16323
▁rig	-16324
▁sco	-16325
▁wip	-16326
卫生设施	-16327
发展计划	-16328
各成员国	-16329
opard	-16330
orate	-16331
▁buff	-16332
▁musc	-16333
▁tent	-16334
作出的努力	-16335
使用核武器	-16336
毛里塔尼亚	-16337
lights	-16338
▁dilig	-16339
▁miles	-16340
▁debris	-16341
▁gentle	-16342
▁incumb	-16343
▁piracy	-16344
▁puerto	-16345
联合国志愿人员	-16346
titative	-16347
▁artific	-16348
▁condemn	-16349
▁confron	-16350
▁electro	-16351
▁handled	-16352
▁streets	-16353
▁chapters	-16354
▁commends	-16355
▁allowances	-16356
▁classified	-16357
▁reflection	-16358
▁accreditation	-16359
▁revitalization	-16360
XV	-16361
gm	-16362
▁七	-16363
▁别	-16364
东京	-16365
为该	-16366
也就	-16367
伴侣	-16368
修理	-16369
半数	-16370
博茨	-16371
原先	-16372
场合	-16373
悲剧	-16374
格达	-16375
法人	-16376
特许	-16377
缺点	-16378
论述	-16379
译文	-16380
阶级	-16381
)""	-16382
▁可是	-16383
▁工作	-16384
区域内	-16385
发表了	-16386
和利用	-16387
巴拉圭	-16388
应包括	-16389
应根据	-16390
族塞人	-16391
波多黎	-16392
的名义	-16393
资料和	-16394
马耳他	-16395
omas	-16396
▁chi	-16397
▁jiu	-16398
▁kit	-16399
中的一个	-16400
第二阶段	-16401
解决冲突	-16402
/2004	-16403
/2012	-16404
liest	-16405
mines	-16406
tious	-16407
入侵和占领	-16408
撒哈拉以南	-16409
非洲经委会	-16410
▁borne	-16411
▁lakes	-16412
▁儿童基金会	-16413
▁affili	-16414
▁basket	-16415
▁inspec	-16416
▁matrix	-16417
▁sphere	-16418
▁ethical	-16419
▁walking	-16420
▁windows	-16421
(212)963-	-16422
▁botswana	-16423
▁securing	-16424
▁guideline	-16425
▁recording	-16426
▁inspections	-16427
▁congratulate	-16428
▁inequalities	-16429
▁disproportion	-16430
▁independently	-16431
su	-16432
▁和	-16433
则是	-16434
初期	-16435
在大	-16436
实务	-16437
总的	-16438
旅馆	-16439
法典	-16440
甲基	-16441
电邮	-16442
界限	-16443
矿物	-16444
要做	-16445
eds	-16446
▁js	-16447
▁亚洲	-16448
制订了	-16449
和支助	-16450
奖学金	-16451
小组的	-16452
有没有	-16453
的道路	-16454
行动者	-16455
起来的	-16456
非国家	-16457
ford	-16458
▁84.	-16459
▁mir	-16460
制定一项	-16461
博茨瓦纳	-16462
所提出的	-16463
灭绝种族	-16464
紧张局势	-16465
绳之以法	-16466
这些努力	-16467
sures	-16468
▁runs	-16469
▁rush	-16470
▁ware	-16471
arians	-16472
▁bonds	-16473
▁tired	-16474
▁审计委员会	-16475
▁eating	-16476
▁resign	-16477
▁fragile	-16478
▁helpful	-16479
vironments	-16480
▁creditors	-16481
▁fertility	-16482
▁prosecuted	-16483
▁satellites	-16484
▁quantitative	-16485
▁configuration	-16486
▁multinational	-16487
▁characteristic	-16488
bb	-16489
一边	-16490
不大	-16491
不满	-16492
优点	-16493
制的	-16494
勇气	-16495
太空	-16496
幸运	-16497
强大	-16498
抢劫	-16499
河流	-16500
[...]
